const unsigned char a_model[] = {
  0x1c, 0x00, 0x00, 0x00, 0x54, 0x46, 0x4c, 0x33, 0x00, 0x00, 0x12, 0x00,
  0x1c, 0x00, 0x04, 0x00, 0x08, 0x00, 0x0c, 0x00, 0x10, 0x00, 0x14, 0x00,
  0x00, 0x00, 0x18, 0x00, 0x12, 0x00, 0x00, 0x00, 0x03, 0x00, 0x00, 0x00,
  0xf0, 0x17, 0x00, 0x00, 0x10, 0x00, 0x00, 0x00, 0x1c, 0x00, 0x00, 0x00,
  0x2c, 0x00, 0x00, 0x00, 0x0c, 0x00, 0x00, 0x00, 0x01, 0x00, 0x00, 0x00,
  0x0c, 0x01, 0x00, 0x00, 0x01, 0x00, 0x00, 0x00, 0xd4, 0x00, 0x00, 0x00,
  0x0f, 0x00, 0x00, 0x00, 0x54, 0x4f, 0x43, 0x4f, 0x20, 0x43, 0x6f, 0x6e,
  0x76, 0x65, 0x72, 0x74, 0x65, 0x64, 0x2e, 0x00, 0x0f, 0x00, 0x00, 0x00,
  0xa8, 0x00, 0x00, 0x00, 0x9c, 0x00, 0x00, 0x00, 0x88, 0x00, 0x00, 0x00,
  0x74, 0x00, 0x00, 0x00, 0x68, 0x00, 0x00, 0x00, 0x60, 0x00, 0x00, 0x00,
  0x58, 0x00, 0x00, 0x00, 0x4c, 0x00, 0x00, 0x00, 0x40, 0x00, 0x00, 0x00,
  0x38, 0x00, 0x00, 0x00, 0x30, 0x00, 0x00, 0x00, 0x28, 0x00, 0x00, 0x00,
  0x1c, 0x00, 0x00, 0x00, 0x10, 0x00, 0x00, 0x00, 0x04, 0x00, 0x00, 0x00,
  0xa2, 0xff, 0xff, 0xff, 0x6c, 0x00, 0x00, 0x00, 0xaa, 0xff, 0xff, 0xff,
  0x44, 0x01, 0x00, 0x00, 0xb2, 0xff, 0xff, 0xff, 0xd0, 0x01, 0x00, 0x00,
  0x70, 0xe9, 0xff, 0xff, 0x74, 0xe9, 0xff, 0xff, 0x78, 0xe9, 0xff, 0xff,
  0xc6, 0xff, 0xff, 0xff, 0x18, 0x03, 0x00, 0x00, 0xce, 0xff, 0xff, 0xff,
  0x78, 0x03, 0x00, 0x00, 0x8c, 0xe9, 0xff, 0xff, 0x90, 0xe9, 0xff, 0xff,
  0xde, 0xff, 0xff, 0xff, 0x68, 0x08, 0x00, 0x00, 0xf6, 0xff, 0xff, 0xff,
  0x3c, 0x09, 0x00, 0x00, 0x00, 0x00, 0x06, 0x00, 0x0a, 0x00, 0x04, 0x00,
  0x06, 0x00, 0x00, 0x00, 0x00, 0x12, 0x00, 0x00, 0x00, 0x00, 0x06, 0x00,
  0x08, 0x00, 0x04, 0x00, 0x06, 0x00, 0x00, 0x00, 0xc4, 0x15, 0x00, 0x00,
  0xc4, 0xe9, 0xff, 0xff, 0x05, 0x00, 0x00, 0x00, 0x31, 0x2e, 0x35, 0x2e,
  0x30, 0x00, 0x00, 0x00, 0xa8, 0xfd, 0xff, 0xff, 0x08, 0x00, 0x00, 0x00,
  0x0e, 0x00, 0x00, 0x00, 0x13, 0x00, 0x00, 0x00, 0x6d, 0x69, 0x6e, 0x5f,
  0x72, 0x75, 0x6e, 0x74, 0x69, 0x6d, 0x65, 0x5f, 0x76, 0x65, 0x72, 0x73,
  0x69, 0x6f, 0x6e, 0x00, 0x0c, 0x00, 0x14, 0x00, 0x04, 0x00, 0x08, 0x00,
  0x0c, 0x00, 0x10, 0x00, 0x0c, 0x00, 0x00, 0x00, 0x20, 0x00, 0x00, 0x00,
  0x14, 0x00, 0x00, 0x00, 0x08, 0x00, 0x00, 0x00, 0xa4, 0x15, 0x00, 0x00,
  0x01, 0x00, 0x00, 0x00, 0x00, 0x00, 0x00, 0x00, 0x01, 0x00, 0x00, 0x00,
  0x01, 0x00, 0x00, 0x00, 0x0d, 0x00, 0x00, 0x00, 0x58, 0x07, 0x00, 0x00,
  0xd0, 0x01, 0x00, 0x00, 0x6c, 0x02, 0x00, 0x00, 0x80, 0x07, 0x00, 0x00,
  0x34, 0x01, 0x00, 0x00, 0x3c, 0x08, 0x00, 0x00, 0x1c, 0x00, 0x00, 0x00,
  0x70, 0x01, 0x00, 0x00, 0x04, 0x11, 0x00, 0x00, 0xa4, 0x00, 0x00, 0x00,
  0xe8, 0x06, 0x00, 0x00, 0xcc, 0x14, 0x00, 0x00, 0xf4, 0x01, 0x00, 0x00,
  0x4a, 0xeb, 0xff, 0xff, 0x10, 0x00, 0x00, 0x00, 0x0d, 0x00, 0x00, 0x00,
  0x10, 0x00, 0x00, 0x00, 0x34, 0x00, 0x00, 0x00, 0x01, 0x00, 0x00, 0x00,
  0x12, 0x00, 0x00, 0x00, 0x23, 0x00, 0x00, 0x00, 0x73, 0x65, 0x71, 0x75,
  0x65, 0x6e, 0x74, 0x69, 0x61, 0x6c, 0x5f, 0x33, 0x31, 0x2f, 0x64, 0x65,
  0x6e, 0x73, 0x65, 0x5f, 0x31, 0x32, 0x32, 0x2f, 0x4d, 0x61, 0x74, 0x4d,
  0x75, 0x6c, 0x5f, 0x62, 0x69, 0x61, 0x73, 0x00, 0xa4, 0xea, 0xff, 0xff,
  0x48, 0x00, 0x00, 0x00, 0x00, 0x00, 0x00, 0x00, 0x8c, 0x38, 0xf0, 0xbd,
  0x0f, 0x92, 0x3e, 0xbe, 0xbc, 0xb0, 0xc2, 0xbb, 0xbf, 0xe4, 0x0d, 0x3c,
  0xe4, 0x68, 0x6c, 0x3e, 0x0e, 0x6d, 0x3c, 0xbe, 0xf9, 0xcc, 0xbe, 0x3d,
  0x80, 0x63, 0x02, 0xbe, 0x36, 0x53, 0xee, 0xbc, 0x70, 0x1e, 0xea, 0xbc,
  0x2d, 0xfd, 0x82, 0xbd, 0x14, 0xc5, 0x75, 0xbe, 0x2a, 0xce, 0xc2, 0x3e,
  0xd2, 0x3a, 0x18, 0x3e, 0x25, 0x2a, 0x03, 0xbe, 0x85, 0x25, 0x4f, 0xbb,
  0x00, 0x00, 0x00, 0x00, 0xde, 0xeb, 0xff, 0xff, 0x10, 0x00, 0x00, 0x00,
  0x0c, 0x00, 0x00, 0x00, 0x10, 0x00, 0x00, 0x00, 0x34, 0x00, 0x00, 0x00,
  0x01, 0x00, 0x00, 0x00, 0x0c, 0x00, 0x00, 0x00, 0x23, 0x00, 0x00, 0x00,
  0x73, 0x65, 0x71, 0x75, 0x65, 0x6e, 0x74, 0x69, 0x61, 0x6c, 0x5f, 0x33,
  0x31, 0x2f, 0x64, 0x65, 0x6e, 0x73, 0x65, 0x5f, 0x31, 0x32, 0x33, 0x2f,
  0x4d, 0x61, 0x74, 0x4d, 0x75, 0x6c, 0x5f, 0x62, 0x69, 0x61, 0x73, 0x00,
  0x38, 0xeb, 0xff, 0xff, 0x30, 0x00, 0x00, 0x00, 0x7e, 0xb4, 0xf4, 0xbb,
  0x43, 0x81, 0x82, 0xbe, 0x66, 0x89, 0x8c, 0xbd, 0x85, 0x3e, 0x5b, 0xbe,
  0xcb, 0xd0, 0x9e, 0x3e, 0x6f, 0x46, 0x80, 0xbd, 0xfc, 0x2c, 0xb2, 0xbd,
  0xa3, 0x2b, 0x9f, 0x3e, 0xe8, 0x93, 0x93, 0xbe, 0x93, 0x7e, 0xc8, 0x3d,
  0x79, 0x9f, 0x9d, 0x3d, 0x1b, 0x8c, 0xde, 0xbd, 0x5a, 0xec, 0xff, 0xff,
  0x10, 0x00, 0x00, 0x00, 0x0b, 0x00, 0x00, 0x00, 0x14, 0x00, 0x00, 0x00,
  0x34, 0x00, 0x00, 0x00, 0x02, 0x00, 0x00, 0x00, 0x01, 0x00, 0x00, 0x00,
  0x1e, 0x00, 0x00, 0x00, 0x1c, 0x00, 0x00, 0x00, 0x73, 0x65, 0x71, 0x75,
  0x65, 0x6e, 0x74, 0x69, 0x61, 0x6c, 0x5f, 0x33, 0x31, 0x2f, 0x64, 0x65,
  0x6e, 0x73, 0x65, 0x5f, 0x31, 0x32, 0x31, 0x2f, 0x52, 0x65, 0x6c, 0x75,
  0x00, 0x00, 0x00, 0x00, 0xb4, 0xeb, 0xff, 0xff, 0xa2, 0xec, 0xff, 0xff,
  0x10, 0x00, 0x00, 0x00, 0x0a, 0x00, 0x00, 0x00, 0x14, 0x00, 0x00, 0x00,
  0x34, 0x00, 0x00, 0x00, 0x02, 0x00, 0x00, 0x00, 0x01, 0x00, 0x00, 0x00,
  0x12, 0x00, 0x00, 0x00, 0x1c, 0x00, 0x00, 0x00, 0x73, 0x65, 0x71, 0x75,
  0x65, 0x6e, 0x74, 0x69, 0x61, 0x6c, 0x5f, 0x33, 0x31, 0x2f, 0x64, 0x65,
  0x6e, 0x73, 0x65, 0x5f, 0x31, 0x32, 0x32, 0x2f, 0x52, 0x65, 0x6c, 0x75,
  0x00, 0x00, 0x00, 0x00, 0xfc, 0xeb, 0xff, 0xff, 0xea, 0xec, 0xff, 0xff,
  0x10, 0x00, 0x00, 0x00, 0x09, 0x00, 0x00, 0x00, 0x14, 0x00, 0x00, 0x00,
  0x24, 0x00, 0x00, 0x00, 0x02, 0x00, 0x00, 0x00, 0x01, 0x00, 0x00, 0x00,
  0x09, 0x00, 0x00, 0x00, 0x07, 0x00, 0x00, 0x00, 0x69, 0x6e, 0x70, 0x75,
  0x74, 0x5f, 0x31, 0x00, 0x08, 0x00, 0x0c, 0x00, 0x04, 0x00, 0x08, 0x00,
  0x08, 0x00, 0x00, 0x00, 0x10, 0x00, 0x00, 0x00, 0x04, 0x00, 0x00, 0x00,
  0x01, 0x00, 0x00, 0x00, 0x00, 0x00, 0x7f, 0x43, 0x01, 0x00, 0x00, 0x00,
  0x00, 0x00, 0x00, 0x00, 0x3a, 0xed, 0xff, 0xff, 0x10, 0x00, 0x00, 0x00,
  0x08, 0x00, 0x00, 0x00, 0x10, 0x00, 0x00, 0x00, 0x34, 0x00, 0x00, 0x00,
  0x01, 0x00, 0x00, 0x00, 0x01, 0x00, 0x00, 0x00, 0x23, 0x00, 0x00, 0x00,
  0x73, 0x65, 0x71, 0x75, 0x65, 0x6e, 0x74, 0x69, 0x61, 0x6c, 0x5f, 0x33,
  0x31, 0x2f, 0x64, 0x65, 0x6e, 0x73, 0x65, 0x5f, 0x31, 0x32, 0x34, 0x2f,
  0x4d, 0x61, 0x74, 0x4d, 0x75, 0x6c, 0x5f, 0x62, 0x69, 0x61, 0x73, 0x00,
  0x94, 0xec, 0xff, 0xff, 0x04, 0x00, 0x00, 0x00, 0xaa, 0x51, 0x3d, 0x3e,
  0x8a, 0xed, 0xff, 0xff, 0x10, 0x00, 0x00, 0x00, 0x07, 0x00, 0x00, 0x00,
  0x14, 0x00, 0x00, 0x00, 0x4c, 0x00, 0x00, 0x00, 0x02, 0x00, 0x00, 0x00,
  0x1e, 0x00, 0x00, 0x00, 0x09, 0x00, 0x00, 0x00, 0x37, 0x00, 0x00, 0x00,
  0x73, 0x65, 0x71, 0x75, 0x65, 0x6e, 0x74, 0x69, 0x61, 0x6c, 0x5f, 0x33,
  0x31, 0x2f, 0x64, 0x65, 0x6e, 0x73, 0x65, 0x5f, 0x31, 0x32, 0x31, 0x2f,
  0x4d, 0x61, 0x74, 0x4d, 0x75, 0x6c, 0x2f, 0x52, 0x65, 0x61, 0x64, 0x56,
  0x61, 0x72, 0x69, 0x61, 0x62, 0x6c, 0x65, 0x4f, 0x70, 0x2f, 0x74, 0x72,
  0x61, 0x6e, 0x73, 0x70, 0x6f, 0x73, 0x65, 0x00, 0xfc, 0xec, 0xff, 0xff,
  0x38, 0x04, 0x00, 0x00, 0x0c, 0xbe, 0xa4, 0x3d, 0xaf, 0x65, 0xce, 0xbb,
  0x23, 0xd9, 0xe3, 0x3e, 0x76, 0x7b, 0x18, 0xbf, 0xa2, 0x65, 0x65, 0x3e,
  0xb0, 0x7c, 0xee, 0xbb, 0x77, 0x8f, 0x85, 0x3d, 0x63, 0x2f, 0x55, 0x3d,
  0x90, 0xce, 0xf3, 0x3d, 0x78, 0x43, 0xfa, 0xbd, 0x90, 0x8c, 0x77, 0xbe,
  0x90, 0x38, 0xc6, 0xbe, 0x58, 0xad, 0x93, 0x3c, 0x41, 0x96, 0x16, 0xbe,
  0x6b, 0xfe, 0xc3, 0x3d, 0x24, 0x43, 0xc5, 0x3e, 0x03, 0xce, 0x3a, 0xbe,
  0x43, 0xba, 0xd4, 0xbc, 0x5c, 0x7d, 0x98, 0xbd, 0x5e, 0x58, 0x89, 0x3e,
  0xb1, 0xd8, 0x61, 0x3e, 0xd4, 0x4f, 0xce, 0xbe, 0xe0, 0x7d, 0xac, 0x3c,
  0xcf, 0xee, 0xb2, 0x3e, 0x30, 0x0d, 0x76, 0x3e, 0xfe, 0xee, 0xcc, 0x3e,
  0xed, 0x48, 0x0e, 0xbf, 0x14, 0x9b, 0xb8, 0xbd, 0x35, 0xf2, 0x36, 0xbe,
  0xad, 0x43, 0x07, 0x3d, 0xdc, 0x0b, 0xe7, 0xbd, 0x7e, 0xe3, 0x49, 0x3e,
  0xb6, 0x68, 0x26, 0xbe, 0x79, 0xe7, 0x76, 0x3e, 0x3f, 0x43, 0xbf, 0xbe,
  0x38, 0x47, 0x07, 0xbe, 0x1b, 0xff, 0x42, 0xbe, 0xa8, 0xc7, 0xb3, 0xbd,
  0xd4, 0xa2, 0xe6, 0xbd, 0x97, 0xc1, 0x5d, 0xbe, 0xc0, 0xcd, 0xb2, 0x3d,
  0xb4, 0xea, 0xc3, 0xbe, 0x22, 0xbc, 0x3d, 0xbe, 0xe6, 0x8c, 0x0a, 0xbe,
  0xbd, 0xe5, 0xb7, 0x3e, 0xf3, 0x67, 0xbd, 0xbe, 0x74, 0x0a, 0xa1, 0x3d,
  0xdb, 0x73, 0xe8, 0x3e, 0x90, 0x14, 0x1b, 0xbe, 0xc8, 0xe0, 0x87, 0x3d,
  0x54, 0x41, 0xe2, 0x39, 0xd6, 0x7d, 0x4f, 0x3e, 0xec, 0xed, 0x8b, 0xbd,
  0x56, 0x3f, 0xa0, 0x3e, 0x60, 0xee, 0x3e, 0xbc, 0x42, 0x12, 0xce, 0x3e,
  0x0e, 0xed, 0x8b, 0x3d, 0x7a, 0x01, 0x12, 0x3f, 0x60, 0xb8, 0xc5, 0x3c,
  0x58, 0xbc, 0xde, 0x3d, 0xa0, 0x29, 0xcc, 0xbd, 0xe1, 0xbe, 0x68, 0x3e,
  0xc3, 0xce, 0x06, 0x3f, 0x54, 0x2d, 0x02, 0xbe, 0x19, 0xce, 0x97, 0x3d,
  0x48, 0x7d, 0x83, 0xbe, 0xd7, 0x7f, 0xff, 0xbe, 0x1b, 0x7b, 0xa5, 0x3e,
  0x62, 0xb4, 0x1a, 0x3d, 0x72, 0xa6, 0xc2, 0xbe, 0x8c, 0xf9, 0xee, 0xbe,
  0xaa, 0xdb, 0x99, 0xbc, 0x52, 0x7e, 0xb6, 0xbe, 0x2c, 0x8a, 0xae, 0x3d,
  0xd0, 0x34, 0x21, 0xbd, 0x4e, 0xf8, 0x40, 0xbe, 0xc8, 0xe1, 0x60, 0xbd,
  0x5f, 0xd1, 0x96, 0xbe, 0xf3, 0x6c, 0xa0, 0xbe, 0x68, 0xf1, 0xc3, 0xbd,
  0x47, 0x37, 0x8d, 0x3e, 0x3e, 0x7f, 0x3f, 0x3e, 0x2f, 0xc3, 0x4e, 0x3e,
  0xb5, 0x20, 0xfb, 0x3c, 0xa5, 0xc6, 0xae, 0xbe, 0xc8, 0xbb, 0xb2, 0xbe,
  0x01, 0xac, 0xe3, 0x3c, 0xc5, 0x00, 0x28, 0xbe, 0x11, 0xf5, 0x7f, 0xba,
  0xbb, 0x58, 0x3a, 0x3f, 0xaa, 0x39, 0xb1, 0xbe, 0xac, 0xf2, 0x64, 0xbe,
  0xd3, 0xb5, 0x62, 0xbe, 0xe0, 0x59, 0xea, 0x3e, 0x4c, 0x07, 0x9d, 0x3d,
  0x88, 0x73, 0x07, 0xbe, 0xf7, 0x92, 0x9a, 0x3e, 0x18, 0x6c, 0x47, 0x3e,
  0x98, 0x4e, 0x00, 0x3f, 0xa2, 0x78, 0x0f, 0xbe, 0x6d, 0x12, 0x9b, 0xbd,
  0xc6, 0xa4, 0xa4, 0x3e, 0xda, 0x46, 0x05, 0xbe, 0xba, 0x5a, 0x59, 0x3e,
  0x57, 0x86, 0x8f, 0xbe, 0xf7, 0x65, 0xee, 0x3d, 0x02, 0x16, 0xa9, 0xbe,
  0xba, 0xec, 0x94, 0xbe, 0xe5, 0x01, 0x88, 0xbe, 0x93, 0x65, 0x0a, 0xbe,
  0xb4, 0xe0, 0xcf, 0x3e, 0x0e, 0x34, 0xa4, 0xbe, 0xd0, 0x05, 0xa3, 0xbd,
  0xad, 0x3c, 0x1e, 0x3d, 0xef, 0xad, 0xc5, 0x3e, 0xe0, 0x1a, 0xc9, 0x3e,
  0xe2, 0xf8, 0x13, 0xbf, 0xda, 0xa2, 0x0c, 0x3e, 0x04, 0x29, 0x96, 0xbe,
  0xe8, 0x8d, 0x8a, 0xbe, 0x0c, 0x1b, 0xa5, 0x3d, 0xc8, 0xde, 0xeb, 0xbd,
  0xea, 0xc4, 0x48, 0xbe, 0xc6, 0x3d, 0xbd, 0xbe, 0xca, 0xda, 0x84, 0xbe,
  0x30, 0x21, 0xa3, 0x3c, 0x9f, 0x01, 0x24, 0xbe, 0xa7, 0x95, 0x38, 0x3e,
  0x64, 0x87, 0xda, 0xbe, 0x3e, 0xc4, 0x75, 0x3e, 0xb6, 0x02, 0x5b, 0xbe,
  0x2f, 0xaa, 0x2d, 0x3e, 0xc3, 0x6f, 0xba, 0x3c, 0x54, 0x47, 0xbf, 0xbe,
  0xfe, 0x80, 0x0c, 0x3f, 0xe4, 0x7b, 0x9b, 0xbe, 0x61, 0xf6, 0x9f, 0x3e,
  0x5c, 0x21, 0xeb, 0x3e, 0x24, 0x6c, 0x82, 0x3d, 0xcb, 0x48, 0x77, 0xbe,
  0x81, 0x9f, 0x77, 0xbe, 0x71, 0x2c, 0x48, 0xbe, 0x41, 0xeb, 0x03, 0x3e,
  0xca, 0x17, 0x8f, 0x3f, 0x50, 0xd3, 0xb9, 0x3c, 0x2a, 0x47, 0x0c, 0xbe,
  0xbe, 0x31, 0xa6, 0xbc, 0x3c, 0x4c, 0xcb, 0x3e, 0x80, 0xf8, 0xc5, 0xbc,
  0x1a, 0xcd, 0x22, 0x3e, 0x72, 0x52, 0xb9, 0xbc, 0xb7, 0x36, 0x49, 0x3d,
  0xd0, 0xc8, 0x12, 0x3f, 0xd8, 0x12, 0x4e, 0x3d, 0x0e, 0x9a, 0xa9, 0x3e,
  0x74, 0x8e, 0xce, 0xbe, 0xdc, 0xfe, 0x83, 0x3e, 0x60, 0x61, 0xb9, 0x3c,
  0x15, 0xf8, 0xba, 0x3e, 0x73, 0x73, 0x73, 0xbd, 0x1f, 0x4d, 0x0c, 0x3e,
  0x2d, 0x15, 0xf5, 0xbe, 0xa7, 0xa4, 0xb2, 0x3e, 0xac, 0x91, 0x82, 0x3b,
  0x06, 0xf7, 0x7d, 0xbe, 0x85, 0x8c, 0x33, 0xbd, 0x49, 0x8e, 0x8f, 0x3e,
  0xa6, 0x09, 0xa6, 0xbd, 0xc4, 0xd3, 0xb2, 0xbe, 0x81, 0x19, 0x21, 0x3d,
  0xf8, 0xac, 0x0b, 0xbf, 0x55, 0xb9, 0x1f, 0xbe, 0x90, 0xf9, 0x90, 0xbd,
  0x9e, 0xb2, 0x83, 0xbe, 0xff, 0x80, 0xed, 0x3e, 0xc0, 0x25, 0xa6, 0xbb,
  0xde, 0x0d, 0xda, 0x3d, 0x45, 0xdc, 0x69, 0xbe, 0x07, 0x41, 0x07, 0x3e,
  0xbc, 0x94, 0x8c, 0x3d, 0xfe, 0x69, 0x40, 0x3e, 0x7e, 0x5c, 0x55, 0xbe,
  0xe5, 0x17, 0xa9, 0x3d, 0x5f, 0x42, 0x8b, 0x3e, 0x80, 0x71, 0xcf, 0xbc,
  0x4a, 0x7b, 0xab, 0xbd, 0xe5, 0x0f, 0xb0, 0x3e, 0x1b, 0x91, 0xa0, 0x3e,
  0xf9, 0x94, 0x21, 0x3f, 0x77, 0x14, 0xa0, 0x3e, 0x9d, 0x8f, 0x88, 0x3c,
  0x08, 0x1a, 0xe6, 0x3e, 0x63, 0xc9, 0x43, 0xbd, 0x00, 0xe7, 0xa3, 0x3d,
  0x9a, 0x06, 0x80, 0x3e, 0xdb, 0x25, 0xb6, 0xbe, 0xb8, 0x99, 0xa5, 0xbd,
  0xf4, 0x0a, 0x85, 0x3f, 0xa0, 0x34, 0x11, 0x3d, 0x58, 0xc8, 0x25, 0xbe,
  0xbc, 0x8f, 0x97, 0x3e, 0xc7, 0x7e, 0xd7, 0x3e, 0x4c, 0xc2, 0xc8, 0x3d,
  0x4e, 0xa3, 0x2f, 0xbe, 0xc1, 0xa4, 0x9f, 0x3d, 0x1b, 0x0b, 0x43, 0xbd,
  0x09, 0x71, 0xb2, 0x3e, 0xbe, 0x9e, 0x4d, 0x3e, 0xd2, 0x08, 0xa2, 0x3e,
  0x37, 0x86, 0x50, 0x3e, 0xf5, 0xaa, 0xd8, 0xbe, 0xcf, 0x22, 0xb6, 0xbe,
  0xe0, 0x05, 0x8a, 0xbd, 0x48, 0xbd, 0x9c, 0x3d, 0x00, 0xe2, 0x07, 0xbe,
  0x96, 0x88, 0x32, 0x3e, 0xc0, 0x25, 0xe3, 0xbd, 0xd5, 0xc5, 0x7e, 0xbe,
  0x09, 0x01, 0xa0, 0x3e, 0x5f, 0xe3, 0xd4, 0xbe, 0x76, 0xdf, 0x35, 0x3e,
  0xef, 0x9b, 0x80, 0x3e, 0x71, 0x7d, 0x8d, 0x3e, 0x7c, 0x13, 0x43, 0x3e,
  0x62, 0x99, 0x6c, 0x3e, 0xe1, 0x38, 0xa2, 0xbe, 0xb3, 0x5f, 0x39, 0xbe,
  0xd8, 0x7f, 0x91, 0x3e, 0x2f, 0x6d, 0xf9, 0x3d, 0xef, 0xde, 0xad, 0x3e,
  0xb5, 0xa6, 0x94, 0xbc, 0x52, 0x92, 0x53, 0xbe, 0x18, 0x66, 0xd3, 0x3d,
  0xd9, 0xf1, 0x76, 0x3e, 0x6d, 0x30, 0xc5, 0x3e, 0x42, 0xd6, 0x80, 0xbe,
  0xd8, 0x2b, 0x99, 0xbe, 0x7b, 0x5f, 0x41, 0x3e, 0xad, 0xa0, 0x81, 0xbe,
  0xa1, 0x75, 0x61, 0x3e, 0xd2, 0x19, 0x04, 0xbf, 0x25, 0xc4, 0x4f, 0x3e,
  0xf2, 0x0c, 0x84, 0x3e, 0x7c, 0xe1, 0x0c, 0xbe, 0x3a, 0xf8, 0xbd, 0xbe,
  0x01, 0x45, 0x22, 0xbe, 0xef, 0xeb, 0xa8, 0xbd, 0xa6, 0xbb, 0x35, 0x3e,
  0xb9, 0x10, 0x19, 0x3e, 0x8d, 0x66, 0x82, 0x3e, 0xe1, 0xb3, 0x80, 0x3d,
  0xf4, 0x8c, 0xa6, 0xbe, 0x40, 0x92, 0x10, 0x3c, 0xd7, 0xa0, 0x88, 0x3e,
  0x05, 0x66, 0xc6, 0xbe, 0xb2, 0x5c, 0xbd, 0xbe, 0x9f, 0x37, 0x40, 0xbe,
  0x5d, 0x62, 0x66, 0xbc, 0xb2, 0xd4, 0x8a, 0xbe, 0xb0, 0x98, 0x08, 0xbe,
  0x20, 0xe6, 0xcb, 0xbe, 0x32, 0xbe, 0x00, 0xbe, 0x40, 0x1a, 0xb6, 0xbe,
  0xdf, 0xfe, 0x56, 0x3d, 0x55, 0xa3, 0xcc, 0xbe, 0x40, 0x52, 0xc2, 0x3c,
  0x86, 0xbf, 0x7f, 0xbe, 0x3f, 0x39, 0xd6, 0xbd, 0x9b, 0x36, 0x90, 0x3e,
  0xc5, 0xf4, 0x94, 0xbe, 0x26, 0xf2, 0xff, 0xff, 0x10, 0x00, 0x00, 0x00,
  0x06, 0x00, 0x00, 0x00, 0x14, 0x00, 0x00, 0x00, 0x34, 0x00, 0x00, 0x00,
  0x02, 0x00, 0x00, 0x00, 0x01, 0x00, 0x00, 0x00, 0x0c, 0x00, 0x00, 0x00,
  0x1c, 0x00, 0x00, 0x00, 0x73, 0x65, 0x71, 0x75, 0x65, 0x6e, 0x74, 0x69,
  0x61, 0x6c, 0x5f, 0x33, 0x31, 0x2f, 0x64, 0x65, 0x6e, 0x73, 0x65, 0x5f,
  0x31, 0x32, 0x33, 0x2f, 0x52, 0x65, 0x6c, 0x75, 0x00, 0x00, 0x00, 0x00,
  0x80, 0xf1, 0xff, 0xff, 0x6e, 0xf2, 0xff, 0xff, 0x10, 0x00, 0x00, 0x00,
  0x05, 0x00, 0x00, 0x00, 0x14, 0x00, 0x00, 0x00, 0x20, 0x00, 0x00, 0x00,
  0x02, 0x00, 0x00, 0x00, 0x01, 0x00, 0x00, 0x00, 0x01, 0x00, 0x00, 0x00,
  0x08, 0x00, 0x00, 0x00, 0x49, 0x64, 0x65, 0x6e, 0x74, 0x69, 0x74, 0x79,
  0x00, 0x00, 0x00, 0x00, 0xb4, 0xf1, 0xff, 0xff, 0xa2, 0xf2, 0xff, 0xff,
  0x10, 0x00, 0x00, 0x00, 0x04, 0x00, 0x00, 0x00, 0x10, 0x00, 0x00, 0x00,
  0x34, 0x00, 0x00, 0x00, 0x01, 0x00, 0x00, 0x00, 0x1e, 0x00, 0x00, 0x00,
  0x23, 0x00, 0x00, 0x00, 0x73, 0x65, 0x71, 0x75, 0x65, 0x6e, 0x74, 0x69,
  0x61, 0x6c, 0x5f, 0x33, 0x31, 0x2f, 0x64, 0x65, 0x6e, 0x73, 0x65, 0x5f,
  0x31, 0x32, 0x31, 0x2f, 0x4d, 0x61, 0x74, 0x4d, 0x75, 0x6c, 0x5f, 0x62,
  0x69, 0x61, 0x73, 0x00, 0xfc, 0xf1, 0xff, 0xff, 0x78, 0x00, 0x00, 0x00,
  0xee, 0x09, 0xe5, 0x3d, 0x2f, 0x3e, 0x45, 0x3d, 0xb2, 0x4d, 0x9b, 0xbe,
  0x87, 0x18, 0xb8, 0xbe, 0x00, 0x00, 0x00, 0x00, 0x1d, 0x96, 0x58, 0x3e,
  0xfa, 0x24, 0xb6, 0x3c, 0xc8, 0x03, 0x78, 0xbe, 0x00, 0x00, 0x00, 0x00,
  0x2e, 0xe1, 0x84, 0x3e, 0x76, 0xb7, 0xeb, 0x3d, 0x6a, 0x89, 0xea, 0xbc,
  0x15, 0x54, 0xec, 0x3b, 0x00, 0x00, 0x00, 0x00, 0x79, 0xa0, 0x2c, 0x3d,
  0x0d, 0x95, 0xdf, 0x3e, 0x65, 0x6d, 0xcc, 0x3e, 0x64, 0x00, 0xc1, 0xbc,
  0x9c, 0x70, 0x66, 0xbe, 0xa5, 0x7e, 0xcd, 0x3d, 0xa4, 0x01, 0x85, 0x3e,
  0xd9, 0x34, 0x3e, 0x3e, 0x1d, 0x25, 0xb7, 0x3c, 0x3e, 0xbc, 0xc2, 0xbd,
  0x0e, 0x9d, 0xa3, 0x3e, 0xc9, 0x2e, 0x54, 0x3d, 0xd9, 0x45, 0x39, 0xbe,
  0x5c, 0xb5, 0xa6, 0xbd, 0x61, 0xa8, 0xf9, 0x3b, 0x0b, 0x62, 0x1a, 0xbe,
  0x66, 0xf3, 0xff, 0xff, 0x10, 0x00, 0x00, 0x00, 0x03, 0x00, 0x00, 0x00,
  0x14, 0x00, 0x00, 0x00, 0x4c, 0x00, 0x00, 0x00, 0x02, 0x00, 0x00, 0x00,
  0x12, 0x00, 0x00, 0x00, 0x1e, 0x00, 0x00, 0x00, 0x37, 0x00, 0x00, 0x00,
  0x73, 0x65, 0x71, 0x75, 0x65, 0x6e, 0x74, 0x69, 0x61, 0x6c, 0x5f, 0x33,
  0x31, 0x2f, 0x64, 0x65, 0x6e, 0x73, 0x65, 0x5f, 0x31, 0x32, 0x32, 0x2f,
  0x4d, 0x61, 0x74, 0x4d, 0x75, 0x6c, 0x2f, 0x52, 0x65, 0x61, 0x64, 0x56,
  0x61, 0x72, 0x69, 0x61, 0x62, 0x6c, 0x65, 0x4f, 0x70, 0x2f, 0x74, 0x72,
  0x61, 0x6e, 0x73, 0x70, 0x6f, 0x73, 0x65, 0x00, 0xd8, 0xf2, 0xff, 0xff,
  0x70, 0x08, 0x00, 0x00, 0xf5, 0x8c, 0x4e, 0xbe, 0x0f, 0x3d, 0x30, 0xbe,
  0xe8, 0xce, 0xb1, 0xbe, 0xd0, 0xa0, 0x61, 0xbd, 0xb2, 0x1d, 0x1d, 0x3e,
  0x49, 0xf0, 0x95, 0x3e, 0x69, 0x26, 0x92, 0x3e, 0xf8, 0x4f, 0x12, 0x3d,
  0x86, 0xd8, 0x86, 0xbe, 0xa0, 0xfb, 0xfb, 0x3d, 0x8c, 0xa0, 0x5d, 0xbe,
  0xd9, 0x21, 0x9a, 0x3e, 0x98, 0xcd, 0x9e, 0x3d, 0x0a, 0xfe, 0x09, 0x3e,
  0xf8, 0x85, 0xfd, 0xbd, 0x7e, 0x05, 0xa0, 0xbe, 0x3c, 0xb2, 0x7d, 0xbe,
  0x80, 0xd3, 0xab, 0x3c, 0xd3, 0x86, 0x22, 0xbe, 0x75, 0xd7, 0x61, 0xbe,
  0x31, 0xfc, 0x96, 0xbe, 0xdc, 0x62, 0x03, 0xbe, 0xbe, 0xec, 0x44, 0x3e,
  0x8a, 0xcd, 0x97, 0xbe, 0x2e, 0x7f, 0x71, 0x3e, 0xe9, 0x3e, 0xaf, 0x3e,
  0x08, 0x0a, 0x54, 0xbd, 0x15, 0xf9, 0x49, 0xbe, 0x9a, 0x78, 0x14, 0xbe,
  0xbe, 0x8a, 0x4b, 0xbe, 0x4a, 0x21, 0x17, 0x3e, 0xf8, 0x3f, 0x17, 0xbe,
  0x36, 0x28, 0xd3, 0x3d, 0x75, 0xa3, 0xb9, 0xbe, 0x11, 0x4f, 0x84, 0x3e,
  0x1c, 0xc2, 0x30, 0xbe, 0x0c, 0xef, 0xb7, 0xbe, 0x51, 0x58, 0x35, 0x3e,
  0xda, 0x45, 0x1e, 0x3e, 0x85, 0xda, 0x49, 0xbe, 0xda, 0x48, 0x38, 0x3e,
  0x44, 0x7b, 0x17, 0xbc, 0xd9, 0x55, 0xa4, 0x3d, 0x94, 0x4e, 0xec, 0x3d,
  0xd8, 0x5f, 0x2f, 0x3e, 0xcf, 0x0c, 0xfc, 0xbd, 0x46, 0x36, 0xfd, 0x3c,
  0x5f, 0x21, 0x82, 0x3e, 0x3b, 0x60, 0xbe, 0x3b, 0x38, 0xf9, 0x73, 0xbe,
  0xbf, 0x47, 0x80, 0x3d, 0x93, 0x40, 0x3a, 0xbe, 0xad, 0x60, 0xdd, 0x3d,
  0x4f, 0x98, 0xbf, 0xbd, 0xbb, 0x7b, 0x28, 0xbe, 0x14, 0x10, 0x7d, 0xbe,
  0x3f, 0xab, 0x25, 0xbe, 0x34, 0xc3, 0xf5, 0xbd, 0x7c, 0x96, 0x65, 0x3e,
  0x0b, 0x6e, 0x76, 0xbd, 0x79, 0x28, 0xb5, 0x3e, 0xf5, 0x11, 0x1d, 0xbd,
  0xcd, 0x54, 0x9c, 0xbb, 0x91, 0x6e, 0x39, 0x3e, 0x4b, 0xed, 0x99, 0x3e,
  0xa1, 0x93, 0xbe, 0x3b, 0x11, 0xa5, 0xec, 0x3d, 0x70, 0x0f, 0x20, 0x3e,
  0x64, 0xe5, 0x97, 0xbe, 0xa5, 0x20, 0xa9, 0xbb, 0x83, 0xed, 0xe8, 0xbe,
  0x26, 0xd8, 0x8f, 0xbd, 0xe2, 0x5a, 0x57, 0x3e, 0xb6, 0x04, 0x82, 0xbe,
  0xc3, 0x76, 0x2d, 0x3d, 0x21, 0x94, 0x9b, 0xbe, 0x06, 0x94, 0x11, 0x3c,
  0xb1, 0x14, 0xd1, 0x3d, 0xf4, 0x42, 0x5b, 0x3e, 0xbf, 0xb4, 0xb9, 0xbe,
  0x73, 0x3e, 0x79, 0xbe, 0x46, 0x61, 0x8d, 0xbe, 0x0a, 0x1f, 0x5b, 0x3e,
  0x19, 0x7b, 0xc1, 0xbe, 0xbf, 0x1c, 0xed, 0x3d, 0x9e, 0xe1, 0xca, 0xbe,
  0x20, 0xf2, 0xa3, 0xbe, 0x75, 0xdc, 0x11, 0xbe, 0x00, 0x8d, 0xdd, 0xbc,
  0x88, 0xac, 0xbf, 0xbe, 0x01, 0xf6, 0x98, 0x3e, 0xcd, 0xeb, 0x95, 0xbe,
  0x2f, 0x39, 0x06, 0xbe, 0xcd, 0xf7, 0x1f, 0xbe, 0x18, 0xdf, 0x11, 0x3d,
  0xf6, 0xa4, 0x9e, 0x3e, 0x53, 0xf4, 0x2d, 0xbe, 0x6f, 0x06, 0x5e, 0x3e,
  0x90, 0x61, 0x80, 0xbe, 0x86, 0x87, 0x17, 0x3e, 0x85, 0x59, 0x4f, 0xbe,
  0x99, 0x8c, 0x2e, 0x3d, 0x87, 0x45, 0x88, 0xbe, 0xc6, 0x6e, 0x6c, 0x3e,
  0xee, 0x4d, 0x80, 0xbe, 0x81, 0x30, 0x80, 0xbe, 0x99, 0x26, 0x7d, 0xbe,
  0xf3, 0xa3, 0x39, 0x3e, 0xfa, 0x27, 0xa9, 0x3e, 0x65, 0x0e, 0x83, 0x3e,
  0xab, 0x6c, 0x4c, 0x3e, 0x7f, 0x0d, 0x91, 0xbe, 0xd4, 0xe9, 0x16, 0xbe,
  0xc8, 0x55, 0xc8, 0x3d, 0xa8, 0x4a, 0x81, 0xbd, 0xfd, 0xa5, 0x21, 0xbe,
  0x00, 0x88, 0x8b, 0xba, 0x03, 0x13, 0x87, 0xbe, 0x4a, 0x14, 0xcc, 0xbd,
  0x2f, 0xab, 0xb3, 0xbe, 0x48, 0x5b, 0xa6, 0xbd, 0x48, 0x4c, 0x81, 0x3d,
  0x39, 0xe9, 0x54, 0xbe, 0x9e, 0x03, 0x2b, 0xbd, 0xdc, 0x7c, 0x9c, 0xbe,
  0x92, 0xbb, 0x83, 0x3e, 0x76, 0xb3, 0x9e, 0x3e, 0x60, 0xf2, 0xc0, 0x3d,
  0x4a, 0x89, 0x3c, 0x3e, 0x43, 0x89, 0x9e, 0xbe, 0x02, 0x01, 0x83, 0xbe,
  0xe8, 0x21, 0x7d, 0xbe, 0x37, 0x7e, 0x31, 0x3e, 0x34, 0x42, 0x88, 0x3d,
  0x86, 0xc9, 0xb3, 0xbe, 0x76, 0xec, 0xeb, 0xbd, 0xa1, 0x5d, 0x2e, 0x3e,
  0x23, 0xf7, 0x44, 0xbe, 0x87, 0x34, 0x40, 0xbe, 0x55, 0x67, 0x91, 0xbe,
  0x15, 0x9a, 0x86, 0xbe, 0xcf, 0x45, 0xbe, 0x3e, 0x24, 0x8e, 0xaa, 0xbe,
  0xa0, 0x1b, 0x25, 0xbd, 0xee, 0x66, 0x20, 0x3e, 0x5e, 0xd8, 0xa3, 0xbe,
  0x88, 0x5e, 0x4b, 0xbe, 0x60, 0x56, 0x6e, 0x3c, 0x91, 0x93, 0xa3, 0x3e,
  0x48, 0xac, 0xed, 0xbd, 0x43, 0x7f, 0x42, 0xbe, 0x71, 0x9e, 0x7e, 0xbe,
  0x4c, 0x04, 0x24, 0xbe, 0x5b, 0xf2, 0x05, 0xbd, 0x19, 0x78, 0x9e, 0x3e,
  0x8b, 0x00, 0x4b, 0x3e, 0x8a, 0xf1, 0x82, 0x3e, 0x0b, 0xf5, 0x09, 0x3c,
  0x82, 0x41, 0x66, 0x3e, 0x17, 0x4b, 0x32, 0xbd, 0xe3, 0x45, 0xc2, 0x3e,
  0x13, 0x4b, 0x25, 0x3e, 0xb5, 0x93, 0x46, 0xbe, 0x3d, 0xbd, 0x9c, 0xbe,
  0xed, 0xf1, 0x13, 0x3e, 0x7f, 0x54, 0x81, 0x3d, 0x12, 0x16, 0x61, 0x3e,
  0xee, 0x65, 0x6b, 0xbe, 0x1c, 0xad, 0x1c, 0x3e, 0x83, 0xe5, 0xc1, 0xbc,
  0x2e, 0xc0, 0x13, 0x3e, 0x04, 0x2f, 0x8d, 0x3e, 0x41, 0xd4, 0xd2, 0x3e,
  0x16, 0x99, 0x70, 0xbd, 0xec, 0x95, 0x55, 0xbe, 0x45, 0x94, 0x30, 0x3e,
  0x46, 0x70, 0x6d, 0x3d, 0x1a, 0x38, 0x6b, 0x3e, 0xcf, 0xdd, 0x28, 0xbe,
  0x3e, 0xda, 0x26, 0x3e, 0xff, 0x30, 0xfe, 0xbd, 0x3b, 0x29, 0xf7, 0x3d,
  0x70, 0x38, 0x41, 0x3e, 0xb1, 0xdd, 0x7b, 0x3e, 0x1a, 0x3b, 0xac, 0xbe,
  0x65, 0xc5, 0x97, 0xbc, 0xf9, 0x86, 0xeb, 0xbe, 0x7d, 0xdb, 0x4f, 0x3e,
  0xa7, 0x1b, 0x05, 0xbe, 0x8b, 0xa9, 0x2a, 0x3e, 0x1d, 0x55, 0x0f, 0x3e,
  0x99, 0x0f, 0x84, 0x3e, 0xa2, 0x43, 0xc9, 0xbe, 0x78, 0xab, 0x38, 0x3d,
  0xb5, 0xd4, 0x13, 0x3e, 0xab, 0x42, 0xef, 0xbd, 0xf2, 0xc8, 0x19, 0x3d,
  0xf7, 0x5c, 0xac, 0x3d, 0x8d, 0xa0, 0xfd, 0x3d, 0x6f, 0x2b, 0xd9, 0xbd,
  0x02, 0x72, 0xc7, 0xbe, 0xd9, 0x27, 0x0e, 0x3e, 0x9a, 0x04, 0x3b, 0xbd,
  0xfe, 0xd6, 0x70, 0xbe, 0x5e, 0xdb, 0x70, 0xbe, 0xab, 0x57, 0x60, 0x3e,
  0x3a, 0xb9, 0x54, 0x3e, 0x85, 0x76, 0x31, 0x3e, 0xf3, 0x0f, 0x1b, 0xbe,
  0x61, 0x98, 0x42, 0x3e, 0x23, 0x74, 0x29, 0x3e, 0x9f, 0x96, 0x6b, 0x3e,
  0x50, 0xca, 0x5f, 0xbe, 0x2c, 0xe8, 0x85, 0xbe, 0x46, 0xb1, 0x2b, 0x3e,
  0x05, 0xa9, 0x37, 0xbe, 0x63, 0x20, 0x8a, 0xbc, 0x10, 0x33, 0xc3, 0xbd,
  0x52, 0x61, 0x13, 0x3e, 0xb6, 0x2f, 0x4d, 0x3e, 0x53, 0xcd, 0x55, 0x3e,
  0x62, 0x8c, 0x2a, 0xbe, 0x0a, 0xbd, 0x5e, 0x3e, 0x79, 0xdc, 0x8b, 0x3e,
  0xf5, 0x6a, 0xef, 0x3d, 0x23, 0x6f, 0x1f, 0xbe, 0xc6, 0xe9, 0x21, 0xbd,
  0x4f, 0xcd, 0x85, 0xbd, 0xcf, 0x50, 0x6d, 0x3e, 0x85, 0xfe, 0x44, 0x3e,
  0x27, 0xc9, 0x95, 0x3d, 0x37, 0x59, 0x3c, 0x3e, 0x49, 0xf2, 0x94, 0xbe,
  0x1a, 0x0a, 0xaf, 0xbe, 0x0f, 0x14, 0x92, 0x3d, 0x89, 0x63, 0x7a, 0x3e,
  0x3f, 0xb0, 0xa2, 0xbc, 0xe9, 0xbb, 0x99, 0xbd, 0x13, 0x61, 0x4c, 0x3e,
  0xf3, 0x73, 0x69, 0xbe, 0xe1, 0x4d, 0xfb, 0xbc, 0x9c, 0x0e, 0xb2, 0x3d,
  0x4b, 0x23, 0x3b, 0x3e, 0x92, 0x23, 0x59, 0x3d, 0xf7, 0x33, 0xac, 0xbe,
  0x1c, 0xc8, 0xac, 0xbe, 0x75, 0xe3, 0x85, 0xbe, 0x4b, 0xa7, 0x25, 0x3d,
  0xc0, 0x9d, 0x09, 0xbd, 0x2d, 0xb2, 0xa6, 0xbe, 0x01, 0x05, 0x5c, 0x3e,
  0x0f, 0xa5, 0x8a, 0x3e, 0xdb, 0x83, 0x61, 0x3d, 0x56, 0xf4, 0x81, 0xbe,
  0xdb, 0x4e, 0x5a, 0xbd, 0x07, 0xe4, 0x8f, 0xbe, 0x00, 0xbb, 0xd7, 0xbe,
  0x17, 0x59, 0x5b, 0x3e, 0x32, 0x53, 0x90, 0x3e, 0x65, 0x88, 0x71, 0xbe,
  0xbe, 0xe2, 0x1c, 0xbe, 0x05, 0xcd, 0x36, 0xbd, 0xd0, 0x0d, 0xfe, 0x3d,
  0x55, 0x6d, 0x16, 0x3d, 0xcc, 0x4d, 0xbe, 0xbe, 0x06, 0xd4, 0x99, 0x3e,
  0x3a, 0xc6, 0x66, 0xbc, 0xe7, 0xaa, 0x76, 0x3e, 0x9e, 0xb8, 0x55, 0x3e,
  0xea, 0x1d, 0x1e, 0x3e, 0x1e, 0xa5, 0xae, 0x3d, 0xb4, 0xbd, 0xb4, 0xbe,
  0x1b, 0xbe, 0xb3, 0xbe, 0xee, 0xdb, 0x1c, 0x3c, 0xbc, 0x3b, 0xac, 0x3d,
  0xf0, 0x4b, 0xab, 0xbd, 0x7d, 0x4b, 0xc7, 0x3c, 0x8d, 0xf0, 0x6f, 0x3e,
  0x30, 0x3a, 0xb4, 0x3c, 0x16, 0xe6, 0x82, 0x3d, 0xc4, 0x93, 0xad, 0xbe,
  0x1d, 0xc8, 0xaf, 0xbe, 0xf5, 0xff, 0x9c, 0xbe, 0xc0, 0x08, 0xf2, 0x3c,
  0x48, 0x55, 0x7e, 0x3e, 0x2a, 0x63, 0x89, 0x3e, 0x48, 0x64, 0xd5, 0xbd,
  0x9b, 0x81, 0xac, 0xbe, 0xf4, 0xbb, 0x90, 0x3e, 0x4a, 0x84, 0x08, 0x3c,
  0x8e, 0xd5, 0x89, 0xbe, 0xf4, 0x92, 0x92, 0x3d, 0x66, 0xc2, 0x8f, 0x3e,
  0x04, 0x23, 0x86, 0xbd, 0xcc, 0x3b, 0x95, 0x3d, 0x24, 0x74, 0xaf, 0x3d,
  0xd1, 0x0f, 0x67, 0x3e, 0x63, 0xca, 0x87, 0x3e, 0x79, 0x84, 0x18, 0xbd,
  0x20, 0xd6, 0x98, 0xbe, 0x79, 0xd7, 0x17, 0xbe, 0xf3, 0x53, 0x97, 0xbd,
  0x75, 0x20, 0x6f, 0xbe, 0xae, 0x00, 0x62, 0xbe, 0xd4, 0x25, 0x57, 0xbe,
  0x59, 0x75, 0x99, 0xbe, 0x5b, 0xaf, 0xa0, 0xbd, 0x1c, 0x83, 0xce, 0x3d,
  0x02, 0x1e, 0xa0, 0xbe, 0xa4, 0x2a, 0x0a, 0x3e, 0x0e, 0x9d, 0xac, 0x3e,
  0xa7, 0x56, 0x15, 0x3e, 0x96, 0x53, 0x98, 0x3e, 0xc0, 0xef, 0x1a, 0x3d,
  0x6b, 0xb9, 0x41, 0x3e, 0x24, 0x65, 0x46, 0xbe, 0xa9, 0x65, 0x74, 0xbe,
  0x87, 0xfa, 0x97, 0x3e, 0x27, 0x72, 0x1b, 0xbe, 0x85, 0x96, 0x9f, 0xbe,
  0x8a, 0x59, 0x11, 0x3e, 0x16, 0xc0, 0x06, 0x3e, 0xc4, 0x8b, 0xbc, 0x3d,
  0x2a, 0x29, 0x13, 0xbe, 0x82, 0x03, 0x96, 0xbe, 0x7f, 0x7b, 0xd9, 0x3c,
  0x62, 0x20, 0x6b, 0xbe, 0xce, 0x6e, 0xc3, 0xbe, 0x49, 0x36, 0x7c, 0xbe,
  0x1b, 0x89, 0xa2, 0xbe, 0x3f, 0xb4, 0x9c, 0x3e, 0x48, 0x49, 0x0c, 0xbe,
  0x10, 0x99, 0xe1, 0x3d, 0x58, 0xb4, 0x85, 0x3e, 0xcc, 0x39, 0xaf, 0xbd,
  0xcb, 0x0c, 0x18, 0xbe, 0x49, 0xb8, 0x9d, 0xbe, 0x3f, 0x27, 0x29, 0x3e,
  0xd8, 0xd8, 0x7b, 0xbe, 0x41, 0x55, 0xbe, 0xbe, 0xd6, 0x51, 0xe3, 0x3c,
  0x67, 0x61, 0x88, 0x3e, 0x1e, 0x0f, 0x8a, 0xbd, 0xc0, 0x89, 0x50, 0xbd,
  0x7e, 0xc1, 0x3a, 0x3e, 0xa7, 0xfa, 0x79, 0x3d, 0x0c, 0x45, 0xb1, 0xbd,
  0x5c, 0x9c, 0xd0, 0x3c, 0xc1, 0x03, 0x46, 0x3e, 0xf0, 0xdc, 0x44, 0xbe,
  0x9a, 0xc9, 0x06, 0xbe, 0x53, 0x98, 0x8a, 0xbe, 0x09, 0x69, 0x27, 0x3e,
  0xe0, 0x28, 0x3e, 0x3e, 0x8a, 0x79, 0x27, 0xbe, 0x0f, 0x0b, 0xbf, 0xbd,
  0xdf, 0x8c, 0xc5, 0x3c, 0xc3, 0x2b, 0x6c, 0x3b, 0x73, 0x70, 0x8c, 0xbe,
  0x2e, 0x23, 0x99, 0x3e, 0xfd, 0xca, 0x33, 0x3d, 0x98, 0xed, 0x78, 0x3d,
  0x56, 0xe2, 0x84, 0xbe, 0x9b, 0x33, 0x49, 0xbe, 0x00, 0xaa, 0x75, 0xbd,
  0x45, 0xe2, 0xa7, 0xbe, 0x5f, 0x5f, 0x39, 0x3e, 0x03, 0x21, 0x23, 0xbe,
  0xa8, 0x4f, 0x68, 0xbe, 0x48, 0x97, 0x89, 0xbd, 0xed, 0xfd, 0x33, 0x3d,
  0xc3, 0x11, 0x9a, 0xbe, 0xdc, 0xf2, 0x43, 0x3e, 0x40, 0xae, 0xf9, 0xbb,
  0x0c, 0x34, 0xee, 0xbe, 0x33, 0xf1, 0x7f, 0x3e, 0x63, 0x61, 0x99, 0xbe,
  0x43, 0xad, 0xcc, 0xbe, 0x2e, 0x90, 0x64, 0x3e, 0xd5, 0xca, 0xa6, 0xbe,
  0xb3, 0xae, 0x3b, 0xbe, 0x5e, 0x89, 0xae, 0xbd, 0x9d, 0xa7, 0x14, 0xbe,
  0xe7, 0xda, 0x09, 0x3e, 0x49, 0xa2, 0x91, 0xbe, 0x6d, 0xad, 0x65, 0x3e,
  0xce, 0xf1, 0xe1, 0x3d, 0x40, 0xca, 0x6d, 0x3e, 0xe6, 0xeb, 0xa9, 0xbe,
  0xaf, 0x7f, 0x11, 0xbe, 0xb4, 0xa2, 0x32, 0x3e, 0x9c, 0x19, 0x25, 0xbe,
  0x61, 0xda, 0x8c, 0xbe, 0xd0, 0xa1, 0x04, 0xbe, 0x19, 0x52, 0xa3, 0x3e,
  0x23, 0x40, 0x8a, 0x3d, 0x0a, 0x0b, 0xdb, 0xbd, 0x05, 0x5b, 0x46, 0xbe,
  0xaa, 0x01, 0x9a, 0xbe, 0x73, 0x10, 0xb5, 0x3e, 0xf2, 0x69, 0x3d, 0xbe,
  0x1b, 0x37, 0xb8, 0x3e, 0x23, 0xe6, 0x23, 0x3e, 0x32, 0x41, 0x43, 0x3e,
  0x1e, 0xd6, 0x97, 0xbd, 0x00, 0xa2, 0x4a, 0x3e, 0x0c, 0x21, 0xab, 0x3e,
  0xc6, 0xe7, 0x64, 0x3c, 0x79, 0xdb, 0x2f, 0x3e, 0x8a, 0xe5, 0x89, 0xbe,
  0xe0, 0xd1, 0x20, 0x3e, 0x16, 0x44, 0xd5, 0x3e, 0x9a, 0xbf, 0x1b, 0xbe,
  0x6b, 0x8c, 0x67, 0x3e, 0xe7, 0x97, 0x8f, 0x3e, 0xf4, 0xa7, 0x28, 0xbe,
  0xf1, 0x2f, 0x45, 0xbe, 0xda, 0x41, 0x96, 0xbe, 0xd3, 0x4b, 0x73, 0xbe,
  0x37, 0x8d, 0x3e, 0x3d, 0x30, 0xde, 0xa0, 0x3e, 0x4f, 0x09, 0x7e, 0xbe,
  0x1e, 0xb2, 0xf3, 0xbd, 0xaa, 0xe1, 0x45, 0xbe, 0xc7, 0x95, 0x5a, 0xbe,
  0x6d, 0x4c, 0xa5, 0x3e, 0x5f, 0xe1, 0x3b, 0xbe, 0x91, 0x1e, 0xb0, 0x3e,
  0x8c, 0x8c, 0xcb, 0x3d, 0xa5, 0x35, 0xb3, 0xbd, 0x2d, 0xea, 0x07, 0x3e,
  0x4d, 0x9b, 0x75, 0x3d, 0xe5, 0x69, 0xa4, 0xbd, 0xb4, 0x17, 0x3f, 0xbe,
  0xa7, 0x11, 0xc8, 0xbe, 0x1b, 0x48, 0x52, 0x3e, 0x83, 0x9d, 0x86, 0x3d,
  0xdb, 0x71, 0x6c, 0xbe, 0x24, 0xf7, 0x11, 0x3d, 0x81, 0xbb, 0x47, 0x3d,
  0x14, 0x46, 0x4b, 0x3a, 0x07, 0x86, 0x72, 0x3d, 0x13, 0x7c, 0xd1, 0x3e,
  0x44, 0x67, 0x0e, 0x3e, 0xc5, 0xf7, 0x82, 0x3e, 0x46, 0x3e, 0xb1, 0x3d,
  0xba, 0x19, 0xa9, 0x3e, 0x4f, 0xbb, 0xad, 0xbc, 0xd5, 0xec, 0x8c, 0xbe,
  0xff, 0xcb, 0xb8, 0x3e, 0xad, 0xc2, 0x0f, 0x3e, 0x7f, 0xd8, 0x84, 0xbe,
  0x69, 0x6b, 0xd0, 0x3d, 0xf8, 0x1e, 0x0f, 0xbe, 0x70, 0xdc, 0x1b, 0xbd,
  0xa1, 0xbc, 0xa9, 0x3d, 0x94, 0xe9, 0x8d, 0x3d, 0xb6, 0xb6, 0x43, 0xbe,
  0xb6, 0xc1, 0x56, 0x3e, 0x5f, 0x2e, 0x50, 0xbe, 0x2c, 0x45, 0x57, 0xbd,
  0x68, 0x31, 0x83, 0xbd, 0xb4, 0xc4, 0xc5, 0xbe, 0x5a, 0xb8, 0x7e, 0x3e,
  0x88, 0xbb, 0xe5, 0xbe, 0x08, 0xaf, 0xd2, 0xbe, 0x44, 0x1f, 0xa0, 0x3b,
  0xa9, 0xd4, 0x13, 0xbc, 0x2e, 0x2b, 0x61, 0x3e, 0xe0, 0x4c, 0x8d, 0xbd,
  0x53, 0x9e, 0x9e, 0x3d, 0x21, 0x29, 0x87, 0xbd, 0x9b, 0x42, 0x22, 0x3e,
  0x5a, 0xcf, 0xc3, 0x3d, 0xe8, 0x38, 0x08, 0x3e, 0x2f, 0xd9, 0xd8, 0xbd,
  0x74, 0xd4, 0x54, 0xbd, 0x3e, 0x11, 0xf5, 0xbd, 0xe2, 0xe3, 0x08, 0xbe,
  0x90, 0x2e, 0x95, 0x3e, 0x72, 0xae, 0x40, 0xbd, 0xae, 0x31, 0x53, 0x3e,
  0xd3, 0x5b, 0x4f, 0xbe, 0x21, 0xbc, 0x83, 0x3e, 0x7e, 0xab, 0x5a, 0x3e,
  0x1d, 0xed, 0xa3, 0x3e, 0x3a, 0x1d, 0x9f, 0xbd, 0xb0, 0x8e, 0x86, 0x3c,
  0xd5, 0xad, 0x58, 0xbe, 0x48, 0x40, 0x47, 0x3d, 0x56, 0x0c, 0x1f, 0xbe,
  0x93, 0xf8, 0x63, 0xbe, 0x3e, 0xc6, 0xad, 0xbc, 0xc2, 0x33, 0x34, 0x3e,
  0x87, 0xae, 0x4d, 0xbc, 0x3e, 0x73, 0xba, 0xbd, 0x4c, 0xb8, 0xde, 0xbc,
  0x9c, 0xb6, 0x39, 0xbe, 0xe9, 0x35, 0xa3, 0xbe, 0x2e, 0x08, 0x6b, 0xbe,
  0x7a, 0xd5, 0x2e, 0xbe, 0x79, 0x25, 0x60, 0xbe, 0x05, 0xc3, 0x95, 0xbe,
  0x82, 0x97, 0x1d, 0xbe, 0xd6, 0x57, 0x34, 0xbe, 0x8c, 0x6e, 0xd0, 0xbd,
  0xdc, 0x8a, 0x6f, 0xbe, 0x74, 0xdf, 0x52, 0xbe, 0xfb, 0xf0, 0x65, 0xbe,
  0xe0, 0x63, 0x86, 0xbd, 0x99, 0x84, 0x2e, 0xbe, 0xb2, 0x04, 0x47, 0x3e,
  0xb0, 0x81, 0xa4, 0xbe, 0x16, 0xe5, 0x28, 0x3e, 0x5a, 0x50, 0x23, 0x3e,
  0xdf, 0x43, 0x50, 0xbe, 0x4b, 0xb2, 0x9b, 0x3e, 0xc9, 0x14, 0x9f, 0x3e,
  0xd7, 0x3e, 0x92, 0xbe, 0xa0, 0x47, 0x7f, 0xbe, 0x4f, 0x0f, 0x18, 0xbe,
  0x84, 0x3b, 0xa4, 0x3d, 0xda, 0x98, 0xa9, 0xbe, 0x3c, 0x28, 0x84, 0x3d,
  0x22, 0xae, 0x3c, 0x3e, 0x4d, 0x5f, 0xa7, 0xbe, 0x08, 0xfd, 0x7d, 0x3d,
  0x85, 0xd7, 0xab, 0xbe, 0xf6, 0x80, 0x24, 0x3e, 0xb0, 0x2e, 0x41, 0x3d,
  0xa0, 0xa0, 0x8a, 0x3d, 0x95, 0xbe, 0x36, 0xbe, 0x78, 0x3d, 0x47, 0xbe,
  0xa0, 0x4d, 0x0e, 0x3d, 0x6b, 0x7f, 0x4d, 0xbe, 0x88, 0x57, 0x82, 0x3d,
  0xd3, 0xe6, 0x1c, 0xbe, 0x12, 0x4a, 0x1c, 0x3e, 0xf5, 0xe3, 0xa2, 0x3e,
  0x9b, 0x71, 0x23, 0xbe, 0x3a, 0xfc, 0xff, 0xff, 0x10, 0x00, 0x00, 0x00,
  0x02, 0x00, 0x00, 0x00, 0x14, 0x00, 0x00, 0x00, 0x4c, 0x00, 0x00, 0x00,
  0x02, 0x00, 0x00, 0x00, 0x0c, 0x00, 0x00, 0x00, 0x12, 0x00, 0x00, 0x00,
  0x37, 0x00, 0x00, 0x00, 0x73, 0x65, 0x71, 0x75, 0x65, 0x6e, 0x74, 0x69,
  0x61, 0x6c, 0x5f, 0x33, 0x31, 0x2f, 0x64, 0x65, 0x6e, 0x73, 0x65, 0x5f,
  0x31, 0x32, 0x33, 0x2f, 0x4d, 0x61, 0x74, 0x4d, 0x75, 0x6c, 0x2f, 0x52,
  0x65, 0x61, 0x64, 0x56, 0x61, 0x72, 0x69, 0x61, 0x62, 0x6c, 0x65, 0x4f,
  0x70, 0x2f, 0x74, 0x72, 0x61, 0x6e, 0x73, 0x70, 0x6f, 0x73, 0x65, 0x00,
  0xac, 0xfb, 0xff, 0xff, 0x60, 0x03, 0x00, 0x00, 0x74, 0x65, 0x87, 0xbd,
  0x5b, 0x46, 0xae, 0x3d, 0x0d, 0xa7, 0x25, 0x3e, 0xed, 0x94, 0xc0, 0x3c,
  0xac, 0xb0, 0x88, 0xbe, 0x68, 0xf6, 0x15, 0x3e, 0x8d, 0x1c, 0x78, 0x3e,
  0x09, 0xdc, 0xbe, 0xbe, 0x42, 0x79, 0x83, 0x3e, 0x4b, 0x9e, 0x53, 0xbd,
  0xe9, 0xeb, 0x28, 0xbe, 0xee, 0xf9, 0x47, 0xbc, 0x44, 0xcc, 0x2f, 0x3e,
  0x24, 0xa8, 0x40, 0x3e, 0xcc, 0x36, 0xab, 0x3d, 0x05, 0x74, 0xa3, 0x3e,
  0x0b, 0x8b, 0x9a, 0xbe, 0x30, 0x51, 0x9b, 0xbe, 0xc8, 0xa7, 0x9d, 0xbe,
  0x67, 0x09, 0x86, 0x3e, 0xd2, 0x1d, 0x95, 0xbe, 0x2d, 0xe0, 0x9f, 0x3e,
  0x7e, 0x1a, 0x15, 0xbe, 0x9b, 0x85, 0xa4, 0xbe, 0x22, 0x27, 0x45, 0x3c,
  0x43, 0x88, 0xe3, 0xbe, 0x1d, 0x0a, 0x9e, 0x3e, 0x8a, 0xca, 0xad, 0x3e,
  0x06, 0x1c, 0xd2, 0x3e, 0x39, 0xf4, 0x7c, 0x3e, 0xdd, 0x5b, 0x40, 0xbd,
  0xdf, 0xc6, 0xbe, 0x3d, 0xd8, 0x9d, 0xf4, 0xbd, 0x62, 0xa3, 0x02, 0x3e,
  0x70, 0x1e, 0xb0, 0xbe, 0xf3, 0x74, 0xc8, 0xbe, 0x96, 0xd3, 0xa8, 0xbe,
  0xa9, 0xc1, 0xa0, 0x3e, 0x5b, 0xf5, 0x43, 0x3c, 0x80, 0x35, 0x17, 0x3e,
  0xf5, 0x7e, 0xa3, 0x3e, 0x3a, 0xb9, 0x07, 0xbf, 0xc5, 0x25, 0x90, 0x3e,
  0x75, 0xa6, 0xaf, 0x3e, 0x27, 0x48, 0x8d, 0xbe, 0x69, 0xbd, 0xc3, 0xbd,
  0x8e, 0x6f, 0xc4, 0x3e, 0xdd, 0x95, 0xb9, 0x3e, 0x2d, 0xd6, 0xbb, 0x3e,
  0xe8, 0x1b, 0xed, 0xbe, 0x74, 0xff, 0x9b, 0x3d, 0xc0, 0xb2, 0x84, 0x3e,
  0x60, 0xa8, 0x73, 0x3d, 0xee, 0xe5, 0xd0, 0x3e, 0xea, 0xb8, 0xbc, 0x3e,
  0xfa, 0xfb, 0x00, 0x3e, 0x84, 0x72, 0xcd, 0xbe, 0xa5, 0xf3, 0x94, 0x3e,
  0xc3, 0x0b, 0xeb, 0xbd, 0x16, 0x3d, 0x6d, 0xbc, 0xd7, 0x63, 0x1c, 0x3e,
  0xe1, 0x21, 0xee, 0xbe, 0xe2, 0x46, 0xec, 0xbe, 0x9e, 0xba, 0x78, 0x3e,
  0x4a, 0xcc, 0x85, 0x3e, 0xe6, 0x26, 0x3d, 0xbe, 0x07, 0xf3, 0x98, 0x3e,
  0xaa, 0x71, 0xd4, 0xbe, 0x3c, 0x68, 0x2e, 0x3e, 0x14, 0xb0, 0x6b, 0x3e,
  0xb1, 0xed, 0x90, 0xbe, 0xa8, 0x86, 0x05, 0x3d, 0xb4, 0x57, 0x45, 0xbe,
  0x19, 0x9c, 0x3f, 0x3e, 0xaf, 0x96, 0xea, 0x3e, 0xa3, 0xbf, 0xe8, 0xbc,
  0x57, 0xd3, 0xd2, 0xbe, 0x00, 0xbc, 0xc6, 0x3e, 0xca, 0x23, 0xd9, 0xbd,
  0x89, 0x7d, 0x7b, 0x3d, 0xb9, 0xff, 0x9a, 0x3e, 0xfe, 0xc6, 0xa2, 0xbe,
  0x1b, 0x7e, 0x93, 0xbe, 0xf7, 0x46, 0xa9, 0x3e, 0x31, 0x3a, 0x6d, 0xbe,
  0xc7, 0x8f, 0x29, 0xbe, 0x46, 0x6d, 0xda, 0xbc, 0x32, 0x17, 0xd3, 0xbe,
  0xa5, 0x15, 0x1f, 0xbe, 0x68, 0x26, 0x36, 0xbd, 0x65, 0xc7, 0x95, 0xbe,
  0x76, 0x4a, 0x8c, 0x3e, 0x48, 0xad, 0xb9, 0x3e, 0x8f, 0xee, 0x18, 0xbe,
  0x7b, 0xab, 0xbd, 0xbd, 0xd3, 0x6c, 0xb4, 0xbd, 0xae, 0xcc, 0x8d, 0x3e,
  0x75, 0x27, 0x95, 0x3c, 0x14, 0xc1, 0xed, 0x3d, 0xee, 0xb6, 0xf5, 0xbe,
  0x3f, 0x65, 0x72, 0x3e, 0x27, 0x01, 0x9f, 0x3e, 0x55, 0xe2, 0x6e, 0xbe,
  0xe1, 0xcd, 0x68, 0x3e, 0xa2, 0x6f, 0xc5, 0x3e, 0x9c, 0x6a, 0xbb, 0xbe,
  0x68, 0x3c, 0xc2, 0xbe, 0x8c, 0xba, 0xa8, 0x3e, 0xb6, 0xf5, 0x9f, 0xbe,
  0xc8, 0x86, 0x16, 0xbb, 0x79, 0xf5, 0xa0, 0xbd, 0x43, 0xb6, 0x57, 0x3e,
  0x6b, 0xc1, 0x90, 0xbe, 0x25, 0x2e, 0xa0, 0xbe, 0xc8, 0xb9, 0xac, 0xbd,
  0x4d, 0xda, 0xbf, 0xbd, 0xfd, 0xbf, 0x58, 0x3e, 0xb0, 0xe9, 0xa8, 0xbe,
  0xba, 0xfc, 0x61, 0xbe, 0x7c, 0x4e, 0x5a, 0x3e, 0x2c, 0x8a, 0x47, 0xbe,
  0xa2, 0xe7, 0x9a, 0x3c, 0xa2, 0x7a, 0x8d, 0xbe, 0x73, 0xe8, 0xb2, 0x3e,
  0x7c, 0x9a, 0xcf, 0x3e, 0xa5, 0xea, 0xa6, 0xbe, 0x64, 0xf9, 0x5d, 0xbe,
  0xca, 0xbb, 0x8c, 0x3e, 0x0e, 0x6d, 0x71, 0xbe, 0x87, 0x54, 0xdd, 0xbe,
  0xb3, 0x6d, 0x64, 0xbe, 0x4d, 0x51, 0x77, 0x3e, 0x62, 0x25, 0xab, 0xbc,
  0xc8, 0xd1, 0x00, 0xbe, 0x82, 0x9b, 0x8f, 0x3e, 0x31, 0x03, 0x31, 0x3e,
  0x37, 0x16, 0xb6, 0xbe, 0x37, 0x32, 0x4d, 0xbe, 0xa9, 0x42, 0x09, 0x3d,
  0x1f, 0x02, 0x8b, 0xbd, 0x02, 0x6c, 0x0c, 0xbe, 0x34, 0x65, 0x22, 0xbe,
  0x34, 0x14, 0xa6, 0x3e, 0xbc, 0xa6, 0x8d, 0x3e, 0x38, 0xee, 0x46, 0xbd,
  0xea, 0xc2, 0x4f, 0xbe, 0x80, 0x9b, 0x21, 0xbe, 0xd2, 0x3e, 0x40, 0xbe,
  0xc0, 0x77, 0x45, 0xbd, 0xfe, 0x59, 0xd1, 0x3e, 0xe9, 0x74, 0x85, 0xbd,
  0xda, 0x3a, 0x16, 0x3e, 0x98, 0x46, 0x9f, 0x3e, 0xfd, 0xee, 0xce, 0x3e,
  0x4f, 0x34, 0x9d, 0xbe, 0x58, 0xfe, 0x5c, 0xbd, 0x19, 0x8b, 0x57, 0x3e,
  0xbf, 0xe1, 0xbe, 0xbe, 0x14, 0x69, 0xf7, 0xbe, 0x0f, 0xb0, 0xdd, 0xbe,
  0x2e, 0xc8, 0xd4, 0xbe, 0x10, 0xb4, 0x89, 0xbc, 0xcc, 0xc3, 0x9b, 0xbe,
  0x73, 0xed, 0x86, 0x3d, 0x96, 0x4d, 0x20, 0xbf, 0xf3, 0x79, 0xb2, 0xbe,
  0x58, 0xec, 0xa9, 0x3d, 0xb1, 0xcb, 0x66, 0x3d, 0x39, 0xe8, 0xe6, 0x3d,
  0x91, 0x18, 0x49, 0xbe, 0x79, 0xbf, 0x55, 0x3e, 0xb1, 0xea, 0x54, 0x3d,
  0xcc, 0xdb, 0x94, 0xbe, 0xdf, 0xca, 0xd5, 0xbe, 0x59, 0x4a, 0x55, 0xbe,
  0xb3, 0x10, 0xc8, 0xbc, 0xe7, 0x36, 0xda, 0x3d, 0xda, 0xe1, 0xfc, 0x3c,
  0xb2, 0xa1, 0xce, 0xbe, 0xc8, 0x27, 0x9c, 0xbe, 0x08, 0x0c, 0xb5, 0x3e,
  0xbe, 0xee, 0x05, 0xbe, 0x00, 0x79, 0x69, 0x3d, 0xce, 0xed, 0x52, 0xbe,
  0x54, 0x1a, 0x21, 0xbe, 0x9c, 0xe5, 0xa2, 0xbe, 0xa0, 0x19, 0x4e, 0xbc,
  0xfd, 0xda, 0x78, 0xbe, 0x4f, 0x34, 0x81, 0x3e, 0xdf, 0xa3, 0xe6, 0xbe,
  0xf6, 0x00, 0x57, 0x3e, 0x69, 0x55, 0x20, 0xbe, 0x36, 0x45, 0x6e, 0x3e,
  0x28, 0x0d, 0xa6, 0xbe, 0x69, 0xb1, 0x80, 0x3e, 0xc7, 0x74, 0x62, 0x3c,
  0xb6, 0xf9, 0x98, 0x3e, 0xd4, 0xe9, 0x34, 0xbe, 0x88, 0x6a, 0x25, 0x3d,
  0x53, 0x33, 0x12, 0x3e, 0xb5, 0x20, 0xe6, 0x3e, 0x8a, 0x79, 0xc2, 0x3e,
  0x4b, 0x72, 0xa9, 0xbe, 0xea, 0xec, 0xbb, 0x3e, 0x85, 0x1e, 0x1c, 0x3f,
  0x61, 0xca, 0x10, 0xbe, 0x6c, 0xf9, 0x8f, 0x3e, 0x5f, 0x3b, 0xc7, 0xbe,
  0x99, 0x95, 0x3c, 0x3e, 0x82, 0xb7, 0x63, 0xbe, 0x32, 0x1a, 0xc0, 0xbd,
  0x76, 0x47, 0x84, 0xbe, 0x20, 0x3d, 0x0f, 0x3d, 0xd3, 0x46, 0xb2, 0x3e,
  0xec, 0xa4, 0x8b, 0xbd, 0x04, 0xeb, 0x2d, 0x3e, 0x00, 0x00, 0x0e, 0x00,
  0x14, 0x00, 0x04, 0x00, 0x00, 0x00, 0x08, 0x00, 0x0c, 0x00, 0x10, 0x00,
  0x0e, 0x00, 0x00, 0x00, 0x10, 0x00, 0x00, 0x00, 0x01, 0x00, 0x00, 0x00,
  0x14, 0x00, 0x00, 0x00, 0x4c, 0x00, 0x00, 0x00, 0x02, 0x00, 0x00, 0x00,
  0x01, 0x00, 0x00, 0x00, 0x0c, 0x00, 0x00, 0x00, 0x37, 0x00, 0x00, 0x00,
  0x73, 0x65, 0x71, 0x75, 0x65, 0x6e, 0x74, 0x69, 0x61, 0x6c, 0x5f, 0x33,
  0x31, 0x2f, 0x64, 0x65, 0x6e, 0x73, 0x65, 0x5f, 0x31, 0x32, 0x34, 0x2f,
  0x4d, 0x61, 0x74, 0x4d, 0x75, 0x6c, 0x2f, 0x52, 0x65, 0x61, 0x64, 0x56,
  0x61, 0x72, 0x69, 0x61, 0x62, 0x6c, 0x65, 0x4f, 0x70, 0x2f, 0x74, 0x72,
  0x61, 0x6e, 0x73, 0x70, 0x6f, 0x73, 0x65, 0x00, 0x80, 0xff, 0xff, 0xff,
  0x30, 0x00, 0x00, 0x00, 0x50, 0xbd, 0x27, 0x3e, 0xec, 0xf7, 0xbe, 0x3e,
  0x59, 0xbc, 0xb5, 0x3e, 0x49, 0xbc, 0x9b, 0x3e, 0xcd, 0xb8, 0xea, 0x3e,
  0x32, 0x17, 0xb9, 0xbe, 0x3d, 0xb3, 0xac, 0x3e, 0x23, 0xce, 0xa4, 0x3e,
  0xf7, 0xa4, 0xcb, 0xbe, 0xea, 0xfc, 0xd3, 0x3e, 0x16, 0x2a, 0xda, 0x3e,
  0xfc, 0x16, 0x7d, 0xbe, 0x04, 0x00, 0x00, 0x00, 0xd8, 0x00, 0x00, 0x00,
  0x84, 0x00, 0x00, 0x00, 0x44, 0x00, 0x00, 0x00, 0x04, 0x00, 0x00, 0x00,
  0x4c, 0xff, 0xff, 0xff, 0x00, 0x00, 0x00, 0x08, 0x10, 0x00, 0x00, 0x00,
  0x1c, 0x00, 0x00, 0x00, 0x28, 0x00, 0x00, 0x00, 0x1c, 0x00, 0x00, 0x00,
  0x03, 0x00, 0x00, 0x00, 0x0a, 0x00, 0x00, 0x00, 0x0b, 0x00, 0x00, 0x00,
  0x0c, 0x00, 0x00, 0x00, 0x01, 0x00, 0x00, 0x00, 0x00, 0x00, 0x00, 0x00,
  0x00, 0x00, 0x00, 0x00, 0x04, 0x00, 0x04, 0x00, 0x04, 0x00, 0x00, 0x00,
  0x88, 0xff, 0xff, 0xff, 0x00, 0x00, 0x00, 0x08, 0x10, 0x00, 0x00, 0x00,
  0x1c, 0x00, 0x00, 0x00, 0x24, 0x00, 0x00, 0x00, 0x1c, 0x00, 0x00, 0x00,
  0x03, 0x00, 0x00, 0x00, 0x07, 0x00, 0x00, 0x00, 0x08, 0x00, 0x00, 0x00,
  0x09, 0x00, 0x00, 0x00, 0x01, 0x00, 0x00, 0x00, 0x0a, 0x00, 0x00, 0x00,
  0x00, 0x00, 0x00, 0x00, 0x4a, 0xff, 0xff, 0xff, 0x00, 0x00, 0x00, 0x01,
  0xc4, 0xff, 0xff, 0xff, 0x00, 0x00, 0x00, 0x08, 0x10, 0x00, 0x00, 0x00,
  0x1c, 0x00, 0x00, 0x00, 0x24, 0x00, 0x00, 0x00, 0x1c, 0x00, 0x00, 0x00,
  0x03, 0x00, 0x00, 0x00, 0x04, 0x00, 0x00, 0x00, 0x05, 0x00, 0x00, 0x00,
  0x06, 0x00, 0x00, 0x00, 0x01, 0x00, 0x00, 0x00, 0x07, 0x00, 0x00, 0x00,
  0x00, 0x00, 0x00, 0x00, 0x86, 0xff, 0xff, 0xff, 0x00, 0x00, 0x00, 0x01,
  0x14, 0x00, 0x18, 0x00, 0x00, 0x00, 0x08, 0x00, 0x0c, 0x00, 0x07, 0x00,
  0x10, 0x00, 0x00, 0x00, 0x00, 0x00, 0x14, 0x00, 0x14, 0x00, 0x00, 0x00,
  0x00, 0x00, 0x00, 0x08, 0x10, 0x00, 0x00, 0x00, 0x1c, 0x00, 0x00, 0x00,
  0x24, 0x00, 0x00, 0x00, 0x1c, 0x00, 0x00, 0x00, 0x03, 0x00, 0x00, 0x00,
  0x01, 0x00, 0x00, 0x00, 0x02, 0x00, 0x00, 0x00, 0x03, 0x00, 0x00, 0x00,
  0x01, 0x00, 0x00, 0x00, 0x04, 0x00, 0x00, 0x00, 0x00, 0x00, 0x00, 0x00,
  0xd6, 0xff, 0xff, 0xff, 0x00, 0x00, 0x00, 0x01, 0x01, 0x00, 0x00, 0x00,
  0x04, 0x00, 0x00, 0x00, 0xe6, 0xff, 0xff, 0xff, 0x00, 0x00, 0x00, 0x09,
  0xfa, 0xff, 0xff, 0xff, 0x00, 0x09, 0x06, 0x00, 0x06, 0x00, 0x05, 0x00,
  0x06, 0x00, 0x00, 0x00, 0x00, 0x09, 0x06, 0x00, 0x08, 0x00, 0x07, 0x00,
  0x06, 0x00, 0x00, 0x00, 0x00, 0x00, 0x00, 0x09
};
