const unsigned char dist_model[] = {
  0x1c, 0x00, 0x00, 0x00, 0x54, 0x46, 0x4c, 0x33, 0x00, 0x00, 0x12, 0x00,
  0x1c, 0x00, 0x04, 0x00, 0x08, 0x00, 0x0c, 0x00, 0x10, 0x00, 0x14, 0x00,
  0x00, 0x00, 0x18, 0x00, 0x12, 0x00, 0x00, 0x00, 0x03, 0x00, 0x00, 0x00,
  0xf0, 0x17, 0x00, 0x00, 0x10, 0x00, 0x00, 0x00, 0x1c, 0x00, 0x00, 0x00,
  0x2c, 0x00, 0x00, 0x00, 0x0c, 0x00, 0x00, 0x00, 0x01, 0x00, 0x00, 0x00,
  0x0c, 0x01, 0x00, 0x00, 0x01, 0x00, 0x00, 0x00, 0xd4, 0x00, 0x00, 0x00,
  0x0f, 0x00, 0x00, 0x00, 0x54, 0x4f, 0x43, 0x4f, 0x20, 0x43, 0x6f, 0x6e,
  0x76, 0x65, 0x72, 0x74, 0x65, 0x64, 0x2e, 0x00, 0x0f, 0x00, 0x00, 0x00,
  0xa8, 0x00, 0x00, 0x00, 0x9c, 0x00, 0x00, 0x00, 0x88, 0x00, 0x00, 0x00,
  0x74, 0x00, 0x00, 0x00, 0x68, 0x00, 0x00, 0x00, 0x5c, 0x00, 0x00, 0x00,
  0x54, 0x00, 0x00, 0x00, 0x4c, 0x00, 0x00, 0x00, 0x44, 0x00, 0x00, 0x00,
  0x38, 0x00, 0x00, 0x00, 0x2c, 0x00, 0x00, 0x00, 0x24, 0x00, 0x00, 0x00,
  0x18, 0x00, 0x00, 0x00, 0x10, 0x00, 0x00, 0x00, 0x04, 0x00, 0x00, 0x00,
  0xa2, 0xff, 0xff, 0xff, 0x6c, 0x00, 0x00, 0x00, 0x60, 0xe9, 0xff, 0xff,
  0xae, 0xff, 0xff, 0xff, 0xa0, 0x01, 0x00, 0x00, 0x6c, 0xe9, 0xff, 0xff,
  0xba, 0xff, 0xff, 0xff, 0x88, 0x05, 0x00, 0x00, 0xc2, 0xff, 0xff, 0xff,
  0xfc, 0x05, 0x00, 0x00, 0x80, 0xe9, 0xff, 0xff, 0x84, 0xe9, 0xff, 0xff,
  0x88, 0xe9, 0xff, 0xff, 0xd6, 0xff, 0xff, 0xff, 0x60, 0x07, 0x00, 0x00,
  0xde, 0xff, 0xff, 0xff, 0xdc, 0x0b, 0x00, 0x00, 0xf6, 0xff, 0xff, 0xff,
  0xb0, 0x0c, 0x00, 0x00, 0x00, 0x00, 0x06, 0x00, 0x0a, 0x00, 0x04, 0x00,
  0x06, 0x00, 0x00, 0x00, 0x74, 0x15, 0x00, 0x00, 0x00, 0x00, 0x06, 0x00,
  0x08, 0x00, 0x04, 0x00, 0x06, 0x00, 0x00, 0x00, 0xf0, 0x15, 0x00, 0x00,
  0xc4, 0xe9, 0xff, 0xff, 0x05, 0x00, 0x00, 0x00, 0x31, 0x2e, 0x35, 0x2e,
  0x30, 0x00, 0x00, 0x00, 0xe4, 0xf9, 0xff, 0xff, 0x08, 0x00, 0x00, 0x00,
  0x0e, 0x00, 0x00, 0x00, 0x13, 0x00, 0x00, 0x00, 0x6d, 0x69, 0x6e, 0x5f,
  0x72, 0x75, 0x6e, 0x74, 0x69, 0x6d, 0x65, 0x5f, 0x76, 0x65, 0x72, 0x73,
  0x69, 0x6f, 0x6e, 0x00, 0x0c, 0x00, 0x14, 0x00, 0x04, 0x00, 0x08, 0x00,
  0x0c, 0x00, 0x10, 0x00, 0x0c, 0x00, 0x00, 0x00, 0x20, 0x00, 0x00, 0x00,
  0x14, 0x00, 0x00, 0x00, 0x08, 0x00, 0x00, 0x00, 0xa4, 0x15, 0x00, 0x00,
  0x01, 0x00, 0x00, 0x00, 0x00, 0x00, 0x00, 0x00, 0x01, 0x00, 0x00, 0x00,
  0x01, 0x00, 0x00, 0x00, 0x0d, 0x00, 0x00, 0x00, 0xe8, 0x05, 0x00, 0x00,
  0x94, 0x05, 0x00, 0x00, 0x5c, 0x06, 0x00, 0x00, 0xf4, 0x0a, 0x00, 0x00,
  0x30, 0x04, 0x00, 0x00, 0xb0, 0x0b, 0x00, 0x00, 0xec, 0x04, 0x00, 0x00,
  0x18, 0x00, 0x00, 0x00, 0x5c, 0x00, 0x00, 0x00, 0x64, 0x04, 0x00, 0x00,
  0xf4, 0x05, 0x00, 0x00, 0x6c, 0x14, 0x00, 0x00, 0x0c, 0x15, 0x00, 0x00,
  0x06, 0xeb, 0xff, 0xff, 0x10, 0x00, 0x00, 0x00, 0x0d, 0x00, 0x00, 0x00,
  0x14, 0x00, 0x00, 0x00, 0x34, 0x00, 0x00, 0x00, 0x02, 0x00, 0x00, 0x00,
  0x01, 0x00, 0x00, 0x00, 0x12, 0x00, 0x00, 0x00, 0x1c, 0x00, 0x00, 0x00,
  0x73, 0x65, 0x71, 0x75, 0x65, 0x6e, 0x74, 0x69, 0x61, 0x6c, 0x5f, 0x32,
  0x39, 0x2f, 0x64, 0x65, 0x6e, 0x73, 0x65, 0x5f, 0x31, 0x31, 0x34, 0x2f,
  0x52, 0x65, 0x6c, 0x75, 0x00, 0x00, 0x00, 0x00, 0xa4, 0xea, 0xff, 0xff,
  0x4e, 0xeb, 0xff, 0xff, 0x10, 0x00, 0x00, 0x00, 0x0c, 0x00, 0x00, 0x00,
  0x14, 0x00, 0x00, 0x00, 0x4c, 0x00, 0x00, 0x00, 0x02, 0x00, 0x00, 0x00,
  0x0c, 0x00, 0x00, 0x00, 0x12, 0x00, 0x00, 0x00, 0x37, 0x00, 0x00, 0x00,
  0x73, 0x65, 0x71, 0x75, 0x65, 0x6e, 0x74, 0x69, 0x61, 0x6c, 0x5f, 0x32,
  0x39, 0x2f, 0x64, 0x65, 0x6e, 0x73, 0x65, 0x5f, 0x31, 0x31, 0x35, 0x2f,
  0x4d, 0x61, 0x74, 0x4d, 0x75, 0x6c, 0x2f, 0x52, 0x65, 0x61, 0x64, 0x56,
  0x61, 0x72, 0x69, 0x61, 0x62, 0x6c, 0x65, 0x4f, 0x70, 0x2f, 0x74, 0x72,
  0x61, 0x6e, 0x73, 0x70, 0x6f, 0x73, 0x65, 0x00, 0x04, 0xeb, 0xff, 0xff,
  0x60, 0x03, 0x00, 0x00, 0x83, 0x74, 0x1c, 0xbe, 0x61, 0x0e, 0xd6, 0x3d,
  0x5c, 0x32, 0x92, 0xbe, 0x9a, 0x30, 0x93, 0x3e, 0xac, 0xf9, 0xba, 0x3d,
  0x8c, 0x2c, 0x03, 0x3e, 0x12, 0xa2, 0x03, 0xbe, 0x92, 0xfe, 0xa6, 0xbe,
  0xaa, 0x61, 0xc4, 0xbe, 0xde, 0x23, 0x91, 0x3c, 0xb6, 0x2a, 0x92, 0xbe,
  0x8d, 0x66, 0x95, 0xbe, 0xed, 0xb2, 0xce, 0x3e, 0x80, 0x45, 0xd9, 0x3c,
  0x87, 0x86, 0x9b, 0x3e, 0xfc, 0xc0, 0xe4, 0x3e, 0xe3, 0xb2, 0xa2, 0xbe,
  0xbd, 0x63, 0xc3, 0x3e, 0xbd, 0x62, 0xed, 0xbe, 0x98, 0x1f, 0x99, 0x3e,
  0x1e, 0x36, 0x31, 0xbe, 0x24, 0x81, 0x4e, 0x3d, 0xff, 0x66, 0x84, 0x3d,
  0xf7, 0x8f, 0x25, 0xbe, 0x2a, 0xf4, 0x8a, 0x3e, 0x13, 0x38, 0xdf, 0x3d,
  0x24, 0x6f, 0x5a, 0x3c, 0xb5, 0x6d, 0x22, 0x3e, 0x42, 0x4f, 0x9b, 0x3e,
  0x63, 0x27, 0x89, 0xbe, 0x9a, 0x11, 0x8a, 0x3e, 0x9d, 0x9c, 0x9b, 0xbe,
  0xfc, 0xa1, 0xa4, 0xbe, 0x73, 0x99, 0xd3, 0xbe, 0xeb, 0x66, 0x91, 0xbe,
  0x3e, 0x9a, 0x49, 0x3e, 0x5b, 0x21, 0x6a, 0xbe, 0xa0, 0xfe, 0x26, 0x3e,
  0xa3, 0x6e, 0xbc, 0xbe, 0x10, 0x81, 0x7c, 0xbe, 0x2c, 0xb4, 0x58, 0x3e,
  0x21, 0x0f, 0x78, 0xbe, 0x04, 0x9b, 0xae, 0x3e, 0xbc, 0x73, 0xde, 0xbd,
  0xa8, 0xb4, 0x9d, 0xbe, 0x70, 0x19, 0xe7, 0x3c, 0x1f, 0xb2, 0xd1, 0xbe,
  0x55, 0x86, 0xcf, 0xbe, 0xde, 0xa5, 0x80, 0x3e, 0x26, 0x58, 0xab, 0x3e,
  0x5a, 0xaf, 0x99, 0xbe, 0x4a, 0x9e, 0x0d, 0xbe, 0x68, 0xbb, 0x9d, 0xbe,
  0x6a, 0xe4, 0xa7, 0xbe, 0x83, 0x20, 0x3c, 0xbe, 0x14, 0xf5, 0x49, 0x3e,
  0xae, 0xc7, 0x05, 0x3b, 0xea, 0x53, 0xde, 0x3d, 0x87, 0x48, 0xdc, 0xbd,
  0x4d, 0x5e, 0x25, 0x3e, 0x3f, 0x0d, 0xbf, 0x3e, 0x93, 0xd9, 0xc9, 0x3e,
  0xaf, 0x33, 0x11, 0xbe, 0xa2, 0x6a, 0xb1, 0x3e, 0x00, 0x1c, 0x17, 0x3e,
  0x39, 0x5b, 0x46, 0x3d, 0xdd, 0x48, 0x7c, 0x3e, 0x70, 0xf6, 0xc2, 0x3d,
  0x8a, 0xef, 0xf9, 0x3e, 0xe5, 0x98, 0xa1, 0x3e, 0x9e, 0x42, 0x3e, 0x3e,
  0x07, 0xc2, 0x0f, 0x3e, 0xbf, 0x26, 0xc3, 0xbd, 0xae, 0x91, 0x4e, 0x3e,
  0x86, 0x87, 0xef, 0xbd, 0xb4, 0xd8, 0x5b, 0x3e, 0x5d, 0xea, 0x10, 0xbe,
  0xdc, 0x40, 0xa8, 0xbe, 0xe9, 0x4c, 0x3c, 0xbe, 0xb1, 0x1f, 0x53, 0x3e,
  0x54, 0xed, 0xa6, 0xbe, 0xcc, 0x77, 0x14, 0x3e, 0xdc, 0x62, 0x9e, 0xbe,
  0x98, 0x3f, 0x2e, 0x3e, 0x3a, 0xd9, 0x4b, 0xbe, 0x8a, 0xfb, 0xda, 0xbe,
  0x58, 0xc4, 0x06, 0xbf, 0xe9, 0x5e, 0x4f, 0xbe, 0x08, 0x65, 0x92, 0xbe,
  0x84, 0x02, 0x86, 0xbd, 0x34, 0x81, 0xb4, 0xbe, 0xd5, 0x8e, 0x1f, 0x3e,
  0xde, 0xc6, 0xb9, 0x3e, 0xac, 0xef, 0x94, 0xbe, 0x77, 0xc3, 0x35, 0xbe,
  0x88, 0xf3, 0x27, 0xbe, 0xad, 0x86, 0xab, 0x3e, 0xf5, 0x72, 0x75, 0x3e,
  0x56, 0x09, 0x93, 0xbe, 0x1f, 0xc9, 0x7d, 0xbd, 0x94, 0x5a, 0x8b, 0xbe,
  0x9a, 0xe6, 0x9e, 0x3e, 0x42, 0xd4, 0x0b, 0x3e, 0xb8, 0x77, 0x1f, 0x3e,
  0xf9, 0xd1, 0x8d, 0x3e, 0x71, 0x0d, 0x69, 0xbe, 0x9b, 0xda, 0x69, 0xbe,
  0xa5, 0xf3, 0xba, 0xbe, 0xc1, 0xb3, 0x33, 0x3e, 0x1a, 0x58, 0xe6, 0xbe,
  0xc1, 0xfa, 0xb4, 0xbe, 0x78, 0xec, 0x8d, 0x3e, 0xb6, 0xcc, 0x73, 0xbe,
  0xa8, 0x23, 0xbf, 0x3e, 0xbc, 0x84, 0x8a, 0x3e, 0x74, 0x86, 0xcc, 0x3e,
  0x7d, 0xee, 0xc2, 0xbe, 0xe7, 0x9f, 0xc1, 0xbe, 0xc0, 0xd5, 0xff, 0x3c,
  0x02, 0xe7, 0xd5, 0xbe, 0xd8, 0x3a, 0x60, 0x3e, 0xc0, 0x64, 0x93, 0xbd,
  0x74, 0xa7, 0xd2, 0x3e, 0x9c, 0x61, 0xba, 0xbd, 0x22, 0xe9, 0x0b, 0xbd,
  0x41, 0xe8, 0x9f, 0xbe, 0xd6, 0x08, 0x69, 0x3e, 0x48, 0xaf, 0xfa, 0xbd,
  0xfe, 0x10, 0xcd, 0x3e, 0xda, 0x9e, 0xd4, 0xbe, 0x6a, 0x66, 0x91, 0xbd,
  0x65, 0x95, 0x3a, 0x3d, 0xfa, 0x73, 0xa4, 0x3e, 0x38, 0x26, 0x6a, 0x3e,
  0x13, 0x05, 0xb7, 0xbd, 0x3c, 0x1f, 0x87, 0xbd, 0x3c, 0x5d, 0x26, 0x3e,
  0x6a, 0x0f, 0x15, 0xbe, 0xc1, 0xac, 0x85, 0x3e, 0x20, 0xdb, 0x12, 0x3e,
  0xe8, 0x0d, 0xcb, 0xbe, 0xeb, 0x43, 0x27, 0x3e, 0xc6, 0x18, 0xa9, 0x3d,
  0x20, 0x06, 0xac, 0xbe, 0x03, 0x9e, 0x11, 0xbe, 0xb0, 0x01, 0x08, 0x3f,
  0xf1, 0x19, 0xac, 0xbb, 0xd1, 0xfd, 0xaa, 0x3e, 0xce, 0x80, 0x84, 0x3e,
  0x45, 0xf0, 0x28, 0x3e, 0x21, 0x3f, 0x0b, 0x3f, 0x17, 0xc1, 0x85, 0x3e,
  0x0e, 0xb3, 0x03, 0x3f, 0xb5, 0x52, 0xed, 0x3c, 0xee, 0x15, 0x82, 0x3e,
  0x5d, 0x30, 0xa0, 0xbe, 0x8d, 0x24, 0xa5, 0x3e, 0x54, 0xb8, 0x53, 0x3e,
  0x93, 0xfd, 0xfb, 0x3e, 0x9f, 0x1b, 0x1b, 0x3f, 0x21, 0x3e, 0x83, 0x3d,
  0x04, 0x0f, 0x00, 0x3d, 0x08, 0x96, 0xef, 0x3d, 0x71, 0x3e, 0xe5, 0xbe,
  0x9f, 0x12, 0x42, 0xbe, 0x0a, 0x27, 0xc3, 0xbe, 0xbf, 0xa4, 0xc0, 0x3d,
  0xe5, 0x47, 0x30, 0x3d, 0xef, 0x90, 0x74, 0xbe, 0x88, 0xfc, 0xb2, 0x3d,
  0x17, 0xb9, 0xe4, 0xbd, 0x0b, 0x13, 0xcc, 0x3e, 0x40, 0xb1, 0xe6, 0xbc,
  0xfc, 0xa5, 0xf7, 0x3d, 0x60, 0x39, 0xe7, 0xbe, 0x54, 0xfb, 0xd4, 0xbd,
  0xe1, 0x87, 0xbb, 0x3d, 0x2a, 0xb4, 0x96, 0xbe, 0x90, 0x7e, 0xcf, 0x3e,
  0x86, 0xdb, 0x37, 0xbe, 0x23, 0x4a, 0x12, 0xbe, 0x4e, 0x1c, 0x07, 0x3d,
  0x8f, 0x38, 0x8e, 0xbe, 0x03, 0x64, 0x98, 0xbe, 0xc0, 0x10, 0x97, 0xbe,
  0xb3, 0x09, 0x86, 0xbe, 0x78, 0x2b, 0x7f, 0x3e, 0x7e, 0x1c, 0xac, 0xbd,
  0xec, 0x84, 0xb3, 0x3d, 0xda, 0x55, 0xa9, 0x3d, 0x80, 0x1b, 0x21, 0x3d,
  0x8a, 0x42, 0xe8, 0x3d, 0x91, 0x6d, 0xbb, 0xbe, 0xc2, 0x78, 0x0e, 0xbe,
  0x9b, 0xb9, 0x00, 0x3d, 0x76, 0x44, 0x6b, 0xbe, 0xfe, 0x20, 0x72, 0x3e,
  0x33, 0x1c, 0x3a, 0xbe, 0x44, 0xc4, 0xa7, 0xbd, 0xea, 0x03, 0xaf, 0xbe,
  0x02, 0xe5, 0xca, 0xbe, 0x00, 0xd7, 0xa8, 0x3c, 0x97, 0xcd, 0x97, 0xbe,
  0xa2, 0xc4, 0xa9, 0x3e, 0x88, 0x55, 0x1d, 0x3e, 0x42, 0x06, 0x28, 0xbe,
  0x84, 0xe0, 0x1d, 0x3e, 0x85, 0x90, 0x7c, 0xbe, 0x6e, 0x6e, 0xa4, 0x3e,
  0xf0, 0x9b, 0xbf, 0xbe, 0x80, 0x91, 0x83, 0xbe, 0xa0, 0x0f, 0xc7, 0xbe,
  0x9d, 0xc6, 0x9d, 0xbe, 0x38, 0x22, 0xa5, 0x3e, 0xc8, 0x63, 0x54, 0xbe,
  0x76, 0xd8, 0xa5, 0xbe, 0x12, 0xef, 0xff, 0xff, 0x10, 0x00, 0x00, 0x00,
  0x0b, 0x00, 0x00, 0x00, 0x14, 0x00, 0x00, 0x00, 0x34, 0x00, 0x00, 0x00,
  0x02, 0x00, 0x00, 0x00, 0x01, 0x00, 0x00, 0x00, 0x1e, 0x00, 0x00, 0x00,
  0x1c, 0x00, 0x00, 0x00, 0x73, 0x65, 0x71, 0x75, 0x65, 0x6e, 0x74, 0x69,
  0x61, 0x6c, 0x5f, 0x32, 0x39, 0x2f, 0x64, 0x65, 0x6e, 0x73, 0x65, 0x5f,
  0x31, 0x31, 0x33, 0x2f, 0x52, 0x65, 0x6c, 0x75, 0x00, 0x00, 0x00, 0x00,
  0xb0, 0xee, 0xff, 0xff, 0x5a, 0xef, 0xff, 0xff, 0x10, 0x00, 0x00, 0x00,
  0x0a, 0x00, 0x00, 0x00, 0x10, 0x00, 0x00, 0x00, 0x34, 0x00, 0x00, 0x00,
  0x01, 0x00, 0x00, 0x00, 0x0c, 0x00, 0x00, 0x00, 0x23, 0x00, 0x00, 0x00,
  0x73, 0x65, 0x71, 0x75, 0x65, 0x6e, 0x74, 0x69, 0x61, 0x6c, 0x5f, 0x32,
  0x39, 0x2f, 0x64, 0x65, 0x6e, 0x73, 0x65, 0x5f, 0x31, 0x31, 0x35, 0x2f,
  0x4d, 0x61, 0x74, 0x4d, 0x75, 0x6c, 0x5f, 0x62, 0x69, 0x61, 0x73, 0x00,
  0xf8, 0xee, 0xff, 0xff, 0x30, 0x00, 0x00, 0x00, 0xe6, 0xf3, 0xf6, 0x3e,
  0x13, 0x08, 0xe4, 0xbd, 0x00, 0x00, 0x00, 0x00, 0x94, 0x9d, 0x73, 0xbf,
  0x53, 0xe3, 0x9c, 0xbd, 0x56, 0xa1, 0xea, 0xbc, 0x7b, 0xa4, 0xbd, 0xbc,
  0x24, 0x8c, 0x06, 0xbe, 0x08, 0xea, 0x5f, 0x3f, 0xc0, 0x70, 0xff, 0xbd,
  0x01, 0x39, 0xa5, 0x3d, 0x00, 0x00, 0x00, 0x00, 0xd6, 0xef, 0xff, 0xff,
  0x10, 0x00, 0x00, 0x00, 0x09, 0x00, 0x00, 0x00, 0x10, 0x00, 0x00, 0x00,
  0x34, 0x00, 0x00, 0x00, 0x01, 0x00, 0x00, 0x00, 0x12, 0x00, 0x00, 0x00,
  0x23, 0x00, 0x00, 0x00, 0x73, 0x65, 0x71, 0x75, 0x65, 0x6e, 0x74, 0x69,
  0x61, 0x6c, 0x5f, 0x32, 0x39, 0x2f, 0x64, 0x65, 0x6e, 0x73, 0x65, 0x5f,
  0x31, 0x31, 0x34, 0x2f, 0x4d, 0x61, 0x74, 0x4d, 0x75, 0x6c, 0x5f, 0x62,
  0x69, 0x61, 0x73, 0x00, 0x74, 0xef, 0xff, 0xff, 0x48, 0x00, 0x00, 0x00,
  0x00, 0xa9, 0xe2, 0x3e, 0xd5, 0x51, 0xa1, 0xbe, 0x9d, 0x44, 0x41, 0xbe,
  0x11, 0xcb, 0x8a, 0xbc, 0x61, 0x82, 0x99, 0x3e, 0xa7, 0x77, 0x5e, 0xbd,
  0xa1, 0x31, 0x2c, 0xbf, 0xea, 0x35, 0xad, 0xbe, 0x44, 0x7a, 0xc8, 0x3e,
  0x5f, 0xab, 0xf9, 0xbd, 0x00, 0x00, 0x00, 0x00, 0x63, 0xcc, 0x96, 0xbe,
  0xf2, 0x21, 0xca, 0xbd, 0x00, 0x00, 0x00, 0x00, 0x90, 0x86, 0x9c, 0xbe,
  0x6d, 0xfc, 0xd8, 0x3d, 0x62, 0x19, 0x93, 0xbd, 0x33, 0x02, 0xbc, 0xbc,
  0x6a, 0xf0, 0xff, 0xff, 0x10, 0x00, 0x00, 0x00, 0x08, 0x00, 0x00, 0x00,
  0x14, 0x00, 0x00, 0x00, 0x24, 0x00, 0x00, 0x00, 0x02, 0x00, 0x00, 0x00,
  0x01, 0x00, 0x00, 0x00, 0x09, 0x00, 0x00, 0x00, 0x07, 0x00, 0x00, 0x00,
  0x69, 0x6e, 0x70, 0x75, 0x74, 0x5f, 0x31, 0x00, 0x08, 0x00, 0x0c, 0x00,
  0x04, 0x00, 0x08, 0x00, 0x08, 0x00, 0x00, 0x00, 0x10, 0x00, 0x00, 0x00,
  0x04, 0x00, 0x00, 0x00, 0x01, 0x00, 0x00, 0x00, 0x00, 0x00, 0x7f, 0x43,
  0x01, 0x00, 0x00, 0x00, 0x00, 0x00, 0x00, 0x00, 0xba, 0xf0, 0xff, 0xff,
  0x10, 0x00, 0x00, 0x00, 0x07, 0x00, 0x00, 0x00, 0x14, 0x00, 0x00, 0x00,
  0x20, 0x00, 0x00, 0x00, 0x02, 0x00, 0x00, 0x00, 0x01, 0x00, 0x00, 0x00,
  0x01, 0x00, 0x00, 0x00, 0x08, 0x00, 0x00, 0x00, 0x49, 0x64, 0x65, 0x6e,
  0x74, 0x69, 0x74, 0x79, 0x00, 0x00, 0x00, 0x00, 0x44, 0xf0, 0xff, 0xff,
  0xee, 0xf0, 0xff, 0xff, 0x10, 0x00, 0x00, 0x00, 0x06, 0x00, 0x00, 0x00,
  0x14, 0x00, 0x00, 0x00, 0x34, 0x00, 0x00, 0x00, 0x02, 0x00, 0x00, 0x00,
  0x01, 0x00, 0x00, 0x00, 0x0c, 0x00, 0x00, 0x00, 0x1c, 0x00, 0x00, 0x00,
  0x73, 0x65, 0x71, 0x75, 0x65, 0x6e, 0x74, 0x69, 0x61, 0x6c, 0x5f, 0x32,
  0x39, 0x2f, 0x64, 0x65, 0x6e, 0x73, 0x65, 0x5f, 0x31, 0x31, 0x35, 0x2f,
  0x52, 0x65, 0x6c, 0x75, 0x00, 0x00, 0x00, 0x00, 0x8c, 0xf0, 0xff, 0xff,
  0x36, 0xf1, 0xff, 0xff, 0x10, 0x00, 0x00, 0x00, 0x05, 0x00, 0x00, 0x00,
  0x14, 0x00, 0x00, 0x00, 0x4c, 0x00, 0x00, 0x00, 0x02, 0x00, 0x00, 0x00,
  0x1e, 0x00, 0x00, 0x00, 0x09, 0x00, 0x00, 0x00, 0x37, 0x00, 0x00, 0x00,
  0x73, 0x65, 0x71, 0x75, 0x65, 0x6e, 0x74, 0x69, 0x61, 0x6c, 0x5f, 0x32,
  0x39, 0x2f, 0x64, 0x65, 0x6e, 0x73, 0x65, 0x5f, 0x31, 0x31, 0x33, 0x2f,
  0x4d, 0x61, 0x74, 0x4d, 0x75, 0x6c, 0x2f, 0x52, 0x65, 0x61, 0x64, 0x56,
  0x61, 0x72, 0x69, 0x61, 0x62, 0x6c, 0x65, 0x4f, 0x70, 0x2f, 0x74, 0x72,
  0x61, 0x6e, 0x73, 0x70, 0x6f, 0x73, 0x65, 0x00, 0xec, 0xf0, 0xff, 0xff,
  0x38, 0x04, 0x00, 0x00, 0xd5, 0xd8, 0x98, 0x3e, 0x6f, 0x4e, 0xc0, 0x3d,
  0x99, 0x41, 0xce, 0xbe, 0xa4, 0x78, 0x84, 0xbc, 0x4c, 0x3d, 0x88, 0xbd,
  0x5c, 0x44, 0x5d, 0xbe, 0x2e, 0x5a, 0xa9, 0xbe, 0x22, 0xbd, 0x0e, 0xbe,
  0x70, 0xd2, 0x98, 0xbe, 0x61, 0x95, 0xc0, 0x3e, 0x01, 0x4e, 0x8f, 0x3e,
  0xe7, 0x65, 0x98, 0x3e, 0x46, 0x30, 0x24, 0x3c, 0x90, 0xa5, 0x86, 0xbc,
  0x47, 0x72, 0x0c, 0xbe, 0x0f, 0xaa, 0xc6, 0xbe, 0x18, 0x31, 0x46, 0x3d,
  0x43, 0xfd, 0x5b, 0x3c, 0x07, 0x81, 0xb1, 0x3e, 0xcf, 0x21, 0xd6, 0xbc,
  0x54, 0x42, 0x3b, 0xbe, 0x00, 0xbb, 0x27, 0x3e, 0xc3, 0xf6, 0xbb, 0xbe,
  0x6b, 0xaf, 0x47, 0x3d, 0xc6, 0x0a, 0x9a, 0xbe, 0x15, 0xf6, 0x9f, 0x3e,
  0x4c, 0xe9, 0x09, 0xbf, 0xe3, 0x44, 0x37, 0xbe, 0x00, 0x3f, 0x20, 0xbd,
  0xe0, 0x79, 0xc4, 0xbc, 0x36, 0x66, 0x22, 0x3e, 0x89, 0xba, 0x9d, 0x3e,
  0xb0, 0xf8, 0x73, 0xbe, 0x02, 0x92, 0x58, 0xbe, 0x25, 0xb8, 0xbc, 0xbe,
  0x82, 0xdf, 0xa8, 0xbe, 0xe0, 0xc3, 0x24, 0x3c, 0x73, 0x7f, 0x8c, 0xbc,
  0xe7, 0xb7, 0x79, 0xbd, 0xdf, 0x15, 0xa6, 0x3e, 0x7b, 0xac, 0xb4, 0x3e,
  0x3a, 0x65, 0xea, 0x3e, 0x36, 0xb9, 0x13, 0x3e, 0x54, 0x3c, 0xaa, 0xbd,
  0x3f, 0xf4, 0x9a, 0x3e, 0xd8, 0x0b, 0x64, 0x3d, 0x22, 0x88, 0xe1, 0x3d,
  0x2e, 0x17, 0xca, 0x3d, 0x58, 0x6c, 0xc4, 0x3d, 0x2c, 0xae, 0x85, 0xbd,
  0x57, 0x42, 0xb2, 0xbe, 0x52, 0x9e, 0xf7, 0xbd, 0x9d, 0xad, 0x6e, 0xbc,
  0x73, 0xf2, 0x4e, 0x3f, 0xd6, 0xe2, 0x0c, 0xbe, 0x10, 0x10, 0x26, 0x3e,
  0xe2, 0xa2, 0x98, 0x3e, 0xe1, 0xc6, 0xc7, 0x3e, 0x2b, 0x38, 0xb5, 0x3e,
  0xcd, 0xdf, 0x8d, 0x3c, 0x79, 0x8b, 0x37, 0x3e, 0x03, 0x29, 0x6f, 0xbd,
  0x16, 0x32, 0x09, 0x3f, 0x5b, 0x6d, 0xbd, 0xbe, 0xd3, 0x38, 0x5b, 0x3b,
  0x97, 0x48, 0x99, 0xbe, 0x55, 0x7c, 0x75, 0xbe, 0xda, 0xbc, 0x26, 0x3e,
  0xe9, 0x9b, 0x8e, 0x3e, 0x73, 0x05, 0x25, 0x3e, 0x18, 0x00, 0xa7, 0x3d,
  0xe2, 0x12, 0x39, 0xbf, 0xa6, 0xe5, 0x71, 0x3e, 0x47, 0x49, 0x9c, 0x3e,
  0x64, 0x98, 0x99, 0x3e, 0x5a, 0x99, 0x25, 0xbf, 0x10, 0x02, 0xb8, 0x3d,
  0x02, 0x14, 0x6f, 0xbe, 0xb4, 0xe0, 0x8d, 0xbd, 0x45, 0x76, 0x46, 0xbe,
  0x6c, 0xba, 0x18, 0xbf, 0x8d, 0x76, 0x99, 0x3e, 0xe2, 0xa9, 0x49, 0x3e,
  0xc1, 0xd3, 0x05, 0xbf, 0xe2, 0x49, 0x9b, 0xbd, 0x17, 0x60, 0x8d, 0x3e,
  0x50, 0xb9, 0xe8, 0xbe, 0xca, 0x5a, 0x02, 0x3b, 0x55, 0x26, 0x84, 0xbe,
  0x90, 0x61, 0x3a, 0xbd, 0xae, 0xda, 0x71, 0x3e, 0xbb, 0x09, 0x5c, 0x3d,
  0x35, 0x48, 0x2a, 0xbe, 0x90, 0x7d, 0xb7, 0xbd, 0x7e, 0x84, 0x52, 0xbe,
  0x1c, 0x87, 0x74, 0x3e, 0x90, 0x75, 0xcd, 0xbe, 0x72, 0xb4, 0xf1, 0x3e,
  0x5e, 0xa0, 0xb9, 0x3e, 0x40, 0x41, 0xfd, 0x3c, 0xc1, 0x69, 0x0f, 0x3e,
  0x7f, 0x80, 0xab, 0x3e, 0xc2, 0x5e, 0x29, 0x3d, 0x70, 0x6e, 0x8f, 0x3d,
  0xb6, 0x9e, 0xd1, 0x3d, 0x78, 0x0b, 0x88, 0x3e, 0x34, 0x01, 0xb9, 0x3e,
  0xaf, 0xfa, 0xb2, 0xbe, 0x40, 0xac, 0x4c, 0xbd, 0x8d, 0x5f, 0x15, 0x3d,
  0xf6, 0xa9, 0x79, 0xbe, 0x81, 0x95, 0x19, 0x3e, 0x42, 0xe7, 0x9a, 0xbe,
  0x1a, 0xa8, 0x25, 0xbd, 0x61, 0x94, 0xa8, 0xbc, 0xcf, 0x4d, 0x90, 0x3e,
  0x44, 0x23, 0xe2, 0x39, 0x82, 0x14, 0x6e, 0xbe, 0xa8, 0x76, 0x0c, 0xbe,
  0x4e, 0x8e, 0xa8, 0xbc, 0xbe, 0x1f, 0x23, 0x3e, 0x50, 0x7b, 0xd5, 0xbc,
  0x01, 0x75, 0xa0, 0xbe, 0xab, 0x5b, 0xa2, 0xbd, 0xc6, 0x98, 0x56, 0x3e,
  0xe4, 0xdf, 0x9d, 0xbe, 0xca, 0x2c, 0x87, 0xbe, 0x86, 0xc5, 0xd9, 0x3d,
  0x73, 0x15, 0x4e, 0xbd, 0x03, 0xb5, 0xa5, 0x3d, 0xc6, 0x5a, 0x67, 0x3e,
  0xeb, 0xf5, 0xd2, 0xbe, 0xa2, 0x08, 0x01, 0xbe, 0xb5, 0xf4, 0x07, 0xbe,
  0x67, 0xe7, 0xc9, 0x3d, 0x62, 0xee, 0x24, 0x3e, 0xe2, 0x6e, 0xac, 0xbe,
  0x06, 0x9b, 0xd1, 0x3d, 0x86, 0x1c, 0x8c, 0xbc, 0x5b, 0xd8, 0x18, 0xbe,
  0xeb, 0xfc, 0x82, 0x3e, 0xfa, 0xd3, 0x06, 0xbf, 0x0a, 0xb2, 0x12, 0x3e,
  0x6e, 0x52, 0xbd, 0x3e, 0x97, 0xc9, 0x88, 0xbe, 0xbd, 0xa5, 0x8b, 0xbe,
  0x46, 0xad, 0xcd, 0x3e, 0x55, 0x31, 0xbd, 0x3e, 0x14, 0xf2, 0x8d, 0xbe,
  0x5c, 0xb3, 0x7e, 0x3e, 0xcf, 0xae, 0x63, 0xbe, 0xba, 0xbd, 0xb4, 0xbe,
  0x8a, 0x81, 0x57, 0x3d, 0x40, 0xd4, 0xbd, 0xbd, 0x98, 0xfa, 0x9d, 0x3e,
  0xd2, 0x3e, 0x44, 0xbe, 0x57, 0x47, 0x4c, 0xbe, 0x00, 0x93, 0xa2, 0x3b,
  0xa1, 0xdd, 0x09, 0xbf, 0x88, 0x3d, 0x59, 0xbe, 0xfd, 0x41, 0x95, 0xbd,
  0x52, 0x32, 0x04, 0xbf, 0x54, 0xec, 0xd6, 0xbd, 0xfb, 0x41, 0xb6, 0xbd,
  0xd2, 0xd6, 0xd7, 0x3e, 0x5d, 0x04, 0x8c, 0x3d, 0x14, 0x31, 0xab, 0xbe,
  0xb5, 0x32, 0x4a, 0x3e, 0xa1, 0x5d, 0x86, 0xbd, 0x97, 0x1e, 0xab, 0x3d,
  0x86, 0x34, 0xc8, 0xbe, 0xac, 0x55, 0xce, 0xbd, 0xae, 0x19, 0x9a, 0x3e,
  0xdf, 0xca, 0xe5, 0x3e, 0x7e, 0x96, 0x4d, 0x3d, 0xcc, 0xe4, 0xfe, 0xbd,
  0xd5, 0x1e, 0x95, 0x3e, 0xd2, 0xe3, 0x7c, 0xbe, 0x18, 0x52, 0x86, 0x3e,
  0x77, 0xfd, 0x3f, 0xbd, 0x0c, 0xfd, 0x50, 0xbe, 0x87, 0xc5, 0x62, 0x3e,
  0x53, 0x6b, 0x09, 0xbf, 0x0c, 0xea, 0x87, 0x3e, 0xc5, 0x8c, 0x9b, 0xbe,
  0x06, 0x5a, 0x5b, 0xbe, 0xfe, 0x1e, 0xab, 0x3d, 0x7e, 0x30, 0x32, 0xbe,
  0xfe, 0x31, 0xec, 0xbe, 0x38, 0x0f, 0xf9, 0xbd, 0x71, 0x5f, 0x14, 0xbd,
  0x78, 0x42, 0xed, 0xbe, 0x87, 0x10, 0xc3, 0x3c, 0x9b, 0xa7, 0x15, 0xbe,
  0x1b, 0xec, 0x97, 0x3d, 0xea, 0x81, 0xee, 0x3d, 0xaf, 0x26, 0x12, 0xbe,
  0x5f, 0xc9, 0x92, 0xbc, 0x00, 0x26, 0x86, 0x3d, 0x9b, 0xb9, 0x39, 0x3d,
  0x61, 0x52, 0x84, 0x3e, 0x36, 0x38, 0xa8, 0x3e, 0xc7, 0x33, 0xc3, 0xbe,
  0xab, 0xe1, 0xbf, 0xbd, 0xb9, 0xd4, 0x19, 0x3e, 0xe7, 0xe8, 0xb6, 0xbc,
  0x9d, 0xce, 0x0b, 0xbd, 0xa8, 0x4b, 0x7d, 0xbd, 0xfb, 0x8f, 0x63, 0xbe,
  0xb4, 0x20, 0xc0, 0x3d, 0xc0, 0x19, 0x92, 0xbe, 0x2a, 0x66, 0xc3, 0xbe,
  0xb1, 0x49, 0x8e, 0xbe, 0x4c, 0x22, 0x5d, 0xbe, 0x00, 0x95, 0x9f, 0xbd,
  0x79, 0x11, 0x9d, 0x3e, 0xfb, 0x2e, 0x9f, 0x3e, 0xe3, 0x5c, 0x86, 0x3e,
  0x01, 0xa5, 0xf5, 0xbd, 0x06, 0x97, 0x3e, 0xbc, 0xb4, 0x92, 0x88, 0x3d,
  0x51, 0xfa, 0xfb, 0xbd, 0x02, 0xe0, 0xbc, 0x3e, 0x9d, 0x53, 0x01, 0xbf,
  0xeb, 0x45, 0x6c, 0xbd, 0xcc, 0x40, 0xe6, 0x3d, 0x9c, 0xe2, 0xd1, 0x3c,
  0x07, 0x84, 0xe9, 0xbd, 0x52, 0xc7, 0x0b, 0xbe, 0x1e, 0x09, 0x9e, 0xbe,
  0x40, 0x8b, 0xfc, 0xba, 0x35, 0x17, 0xbb, 0xbe, 0xc6, 0xfc, 0x35, 0x3e,
  0xbd, 0xbd, 0xe3, 0xbd, 0x0c, 0x60, 0xfc, 0x3d, 0x01, 0xce, 0x35, 0x3e,
  0xa0, 0x2c, 0xc8, 0xbe, 0xd8, 0x76, 0xf0, 0xbe, 0xff, 0x41, 0x37, 0xbe,
  0x1f, 0x6a, 0xb4, 0x3d, 0x81, 0xd3, 0xaa, 0xbb, 0x45, 0xab, 0x0b, 0xbf,
  0xf8, 0x10, 0xe1, 0xbe, 0x76, 0x64, 0x68, 0x3e, 0x5b, 0x2d, 0xa5, 0x3e,
  0x43, 0x5c, 0x88, 0xbe, 0x79, 0xac, 0x7a, 0x3d, 0x80, 0x4f, 0x34, 0x3b,
  0xe4, 0x68, 0x81, 0xbd, 0xda, 0xd3, 0xcc, 0x3e, 0x9a, 0xdb, 0x7d, 0x3e,
  0xb0, 0x19, 0xfd, 0x3d, 0xb6, 0xd7, 0xb3, 0xbe, 0x78, 0xbf, 0x10, 0xbe,
  0x8c, 0xd2, 0x93, 0x3d, 0x30, 0xf4, 0xf5, 0x3d, 0xb3, 0x14, 0xaa, 0x3e,
  0xc0, 0x94, 0x84, 0x3c, 0xbf, 0x5b, 0xea, 0xbe, 0x49, 0x59, 0x8a, 0x3e,
  0x5c, 0x7f, 0xb6, 0xbd, 0xb5, 0x9a, 0xaf, 0x3e, 0x90, 0xba, 0x1a, 0xbe,
  0x08, 0x1d, 0x0e, 0x3e, 0x66, 0x66, 0xe7, 0x3e, 0x30, 0x58, 0x82, 0xbd,
  0x2a, 0xdc, 0x75, 0xbc, 0x21, 0xf2, 0x4e, 0x3e, 0x92, 0xc9, 0x1e, 0xbe,
  0x79, 0xac, 0x48, 0x3f, 0xd2, 0xf5, 0xff, 0xff, 0x10, 0x00, 0x00, 0x00,
  0x04, 0x00, 0x00, 0x00, 0x10, 0x00, 0x00, 0x00, 0x34, 0x00, 0x00, 0x00,
  0x01, 0x00, 0x00, 0x00, 0x1e, 0x00, 0x00, 0x00, 0x23, 0x00, 0x00, 0x00,
  0x73, 0x65, 0x71, 0x75, 0x65, 0x6e, 0x74, 0x69, 0x61, 0x6c, 0x5f, 0x32,
  0x39, 0x2f, 0x64, 0x65, 0x6e, 0x73, 0x65, 0x5f, 0x31, 0x31, 0x33, 0x2f,
  0x4d, 0x61, 0x74, 0x4d, 0x75, 0x6c, 0x5f, 0x62, 0x69, 0x61, 0x73, 0x00,
  0x70, 0xf5, 0xff, 0xff, 0x78, 0x00, 0x00, 0x00, 0x52, 0x00, 0x80, 0xbd,
  0xdb, 0x63, 0x92, 0xbe, 0xef, 0x0a, 0xa5, 0xbe, 0x00, 0x00, 0x00, 0x00,
  0xde, 0xeb, 0xd8, 0xbe, 0x63, 0xc6, 0x0d, 0x3f, 0xf1, 0x17, 0x03, 0x3e,
  0x9d, 0x9e, 0x72, 0xbe, 0xab, 0xa9, 0x8e, 0xbe, 0x14, 0x6b, 0xa2, 0xbe,
  0xc3, 0x9a, 0xfc, 0x3e, 0x2a, 0x9e, 0xd8, 0xbe, 0x16, 0x66, 0x40, 0xbe,
  0x99, 0xda, 0xf0, 0x3d, 0x64, 0xd9, 0x19, 0x3d, 0x28, 0xf3, 0xcb, 0xbd,
  0xdd, 0xf5, 0xca, 0x3d, 0x31, 0x07, 0x8a, 0xbe, 0x91, 0xb8, 0xb1, 0xbe,
  0x02, 0x51, 0x36, 0xbf, 0x31, 0x45, 0xbb, 0xbd, 0xa6, 0x9a, 0x82, 0x3e,
  0xb2, 0x3c, 0xb4, 0xbe, 0x00, 0x00, 0x00, 0x00, 0x8b, 0x92, 0x85, 0x3e,
  0xe7, 0xea, 0xc0, 0xbe, 0xd9, 0xba, 0x88, 0x3d, 0x5d, 0x57, 0xa4, 0xbe,
  0xf5, 0xa5, 0x91, 0x3e, 0x2b, 0x56, 0x0f, 0x3f, 0x96, 0xf6, 0xff, 0xff,
  0x10, 0x00, 0x00, 0x00, 0x03, 0x00, 0x00, 0x00, 0x14, 0x00, 0x00, 0x00,
  0x4c, 0x00, 0x00, 0x00, 0x02, 0x00, 0x00, 0x00, 0x12, 0x00, 0x00, 0x00,
  0x1e, 0x00, 0x00, 0x00, 0x37, 0x00, 0x00, 0x00, 0x73, 0x65, 0x71, 0x75,
  0x65, 0x6e, 0x74, 0x69, 0x61, 0x6c, 0x5f, 0x32, 0x39, 0x2f, 0x64, 0x65,
  0x6e, 0x73, 0x65, 0x5f, 0x31, 0x31, 0x34, 0x2f, 0x4d, 0x61, 0x74, 0x4d,
  0x75, 0x6c, 0x2f, 0x52, 0x65, 0x61, 0x64, 0x56, 0x61, 0x72, 0x69, 0x61,
  0x62, 0x6c, 0x65, 0x4f, 0x70, 0x2f, 0x74, 0x72, 0x61, 0x6e, 0x73, 0x70,
  0x6f, 0x73, 0x65, 0x00, 0x4c, 0xf6, 0xff, 0xff, 0x70, 0x08, 0x00, 0x00,
  0xb4, 0x56, 0x1c, 0x3e, 0x0d, 0x3d, 0x96, 0xbe, 0x75, 0xf9, 0x1f, 0x3e,
  0x12, 0xf1, 0x16, 0x3e, 0x86, 0xc7, 0xb6, 0x3e, 0x62, 0xed, 0xeb, 0x3e,
  0xc2, 0x46, 0x82, 0xbd, 0xa1, 0xc6, 0xf2, 0x3e, 0x32, 0xb5, 0x13, 0x3e,
  0x65, 0x50, 0x9a, 0xbe, 0x70, 0x44, 0x76, 0x3e, 0x8a, 0x41, 0x38, 0x3d,
  0x55, 0x2a, 0xb5, 0x3e, 0x8a, 0x0f, 0x8c, 0x3c, 0x8b, 0x13, 0x8e, 0x3e,
  0xa5, 0x6c, 0x75, 0x3e, 0x97, 0x86, 0xd6, 0x3e, 0x5a, 0x77, 0xc9, 0x3e,
  0x33, 0x84, 0x39, 0xbd, 0x9e, 0x13, 0x0a, 0xbc, 0x5c, 0x8e, 0xf5, 0x3e,
  0xfe, 0xfb, 0x82, 0x3c, 0xde, 0x2a, 0xb3, 0x3d, 0xe8, 0xdc, 0x3e, 0x3d,
  0x13, 0x77, 0x0b, 0x3e, 0xaa, 0xd3, 0xb3, 0xbd, 0x68, 0xdf, 0x08, 0x3f,
  0x34, 0x99, 0x0b, 0x3f, 0x37, 0x3e, 0x64, 0x3e, 0x3f, 0x49, 0xb5, 0xbd,
  0xe4, 0x0c, 0x73, 0xbe, 0x3c, 0x50, 0x93, 0xbe, 0x1c, 0x98, 0x91, 0xbe,
  0x92, 0x73, 0x9d, 0xbe, 0x47, 0x93, 0xee, 0x3d, 0xd8, 0x12, 0xa6, 0xbe,
  0xbf, 0x63, 0x1d, 0xbe, 0x3f, 0x6e, 0xe2, 0x3d, 0xb3, 0x99, 0x05, 0xbe,
  0xe8, 0xf4, 0x81, 0x3e, 0x97, 0xc7, 0x24, 0xbe, 0x6b, 0x7a, 0x1b, 0x3e,
  0xa2, 0x17, 0x91, 0xbe, 0x71, 0x51, 0xa8, 0xbe, 0xf0, 0x12, 0xb5, 0xbe,
  0xa9, 0x6e, 0x86, 0x3e, 0x0d, 0xff, 0x1b, 0x3d, 0x90, 0xaf, 0x29, 0xbe,
  0xa6, 0x97, 0xe6, 0xbd, 0xf7, 0x09, 0x24, 0x3d, 0xe1, 0xdb, 0x4b, 0xbe,
  0xcf, 0xa0, 0xa0, 0x3e, 0x61, 0x04, 0x56, 0xbe, 0xa9, 0x42, 0xa1, 0x3e,
  0x6c, 0xa6, 0x04, 0xbd, 0xed, 0x34, 0x8a, 0x3e, 0x9a, 0xdd, 0x04, 0x3e,
  0x5d, 0x7f, 0x1b, 0x3e, 0xcf, 0xc8, 0xa8, 0xbd, 0xa9, 0xf1, 0x12, 0x3e,
  0x04, 0x85, 0x18, 0x3e, 0x76, 0xfa, 0x3d, 0xbe, 0xa5, 0xd7, 0x9a, 0xbe,
  0xde, 0xa9, 0x27, 0xbe, 0xfd, 0xf2, 0xcb, 0x3c, 0x3d, 0x39, 0xc4, 0x3d,
  0xc8, 0x75, 0xd0, 0xbd, 0x15, 0x04, 0x86, 0xbd, 0xcf, 0x9a, 0x02, 0xbe,
  0x90, 0x6a, 0x9d, 0x3b, 0xea, 0xdb, 0x6e, 0xbe, 0x0c, 0x31, 0x88, 0xbe,
  0x04, 0xb9, 0xfc, 0xbb, 0xfa, 0x0d, 0xb6, 0xbe, 0x44, 0xc3, 0xf9, 0xbc,
  0xa8, 0xa8, 0x37, 0xbe, 0xf2, 0x80, 0xa1, 0x3e, 0x26, 0xa9, 0x35, 0x3e,
  0x82, 0x5b, 0xb9, 0xbe, 0xd4, 0x3b, 0xe7, 0x3d, 0xef, 0xf9, 0x80, 0x3d,
  0x92, 0xda, 0x4d, 0xbe, 0x25, 0x48, 0xfd, 0x3d, 0x20, 0xd3, 0x74, 0x3c,
  0x6e, 0xb7, 0x84, 0x3e, 0x13, 0xc6, 0x90, 0xbe, 0x11, 0x74, 0xc0, 0xbe,
  0x16, 0xbd, 0x8c, 0xbd, 0x8d, 0xa8, 0x88, 0x3e, 0xc8, 0x50, 0xac, 0xbc,
  0x9a, 0x7a, 0x11, 0x3e, 0xf3, 0x46, 0xc5, 0x3e, 0xa9, 0x55, 0x4d, 0xbd,
  0x0c, 0x89, 0x91, 0xbe, 0x1e, 0x01, 0xfb, 0xbd, 0x87, 0xf0, 0x19, 0xbe,
  0xac, 0x34, 0x14, 0x3e, 0x63, 0x7e, 0x0b, 0x3d, 0x2e, 0x43, 0xb6, 0xbc,
  0x01, 0x7b, 0xe3, 0x3d, 0xbd, 0x6b, 0x7a, 0xbd, 0x5c, 0x87, 0xc7, 0xbe,
  0xf3, 0xf2, 0x41, 0xbe, 0x32, 0x38, 0xa4, 0x3d, 0xdc, 0x24, 0x0d, 0x3f,
  0x5b, 0x97, 0x49, 0xbe, 0x03, 0x09, 0x85, 0x3e, 0x67, 0x6d, 0x8f, 0x3d,
  0x3c, 0x80, 0xb3, 0xbc, 0x97, 0x2f, 0x83, 0xbe, 0x3f, 0x52, 0x14, 0xbe,
  0x04, 0x66, 0x48, 0xbb, 0x70, 0x72, 0x71, 0x3c, 0x44, 0xd6, 0xd8, 0xbd,
  0x3c, 0x6f, 0x80, 0x3e, 0x7f, 0x9a, 0xbe, 0xbe, 0x7a, 0xaf, 0x44, 0xbe,
  0xd4, 0xc4, 0x53, 0x3e, 0x74, 0x8f, 0x5d, 0x3e, 0x1e, 0x98, 0xb6, 0xbb,
  0x8e, 0xdd, 0x8c, 0x3e, 0x19, 0x67, 0x8b, 0x3e, 0x60, 0x47, 0x9c, 0xbe,
  0x3e, 0x4d, 0xaa, 0xbe, 0x3d, 0x0b, 0xe1, 0x3c, 0xae, 0x86, 0x0d, 0xbe,
  0x06, 0x3f, 0x69, 0x3e, 0x14, 0x14, 0xda, 0xbd, 0xde, 0x46, 0x2e, 0x3e,
  0x27, 0xc2, 0x96, 0x3d, 0x8c, 0xc0, 0x2f, 0xbe, 0xcf, 0x36, 0x2d, 0x3e,
  0x0d, 0xfa, 0x2d, 0x3e, 0x13, 0x33, 0x8a, 0xbe, 0x18, 0x3b, 0x83, 0xbe,
  0xd7, 0xed, 0x77, 0xbe, 0x94, 0xf6, 0x8c, 0xbd, 0xe5, 0x0c, 0x62, 0xbe,
  0xb2, 0xb2, 0x9c, 0xbe, 0xb4, 0x26, 0x94, 0xbe, 0x64, 0x74, 0x80, 0x3e,
  0x95, 0xf5, 0x49, 0xbe, 0xb4, 0xe0, 0xae, 0xbd, 0x73, 0xe8, 0x44, 0xbe,
  0x85, 0xa6, 0x81, 0x3d, 0x63, 0xb6, 0x03, 0xbe, 0x30, 0xb7, 0xfe, 0x3c,
  0xa0, 0xb5, 0xfd, 0xbd, 0xae, 0x4a, 0x43, 0xbd, 0x53, 0x7f, 0xf7, 0xbd,
  0xe8, 0xa0, 0xd7, 0xbd, 0x23, 0x8d, 0xdf, 0xbd, 0x30, 0xde, 0x1a, 0xbe,
  0x3a, 0xe2, 0x03, 0x3e, 0xc0, 0x5e, 0x2f, 0x3c, 0x3b, 0x2f, 0x1e, 0x3e,
  0xce, 0x26, 0xa5, 0xbe, 0xdc, 0xa2, 0x93, 0x3e, 0x4f, 0x55, 0x84, 0x3e,
  0x72, 0xea, 0x29, 0x3e, 0x24, 0xce, 0xb9, 0xbe, 0x01, 0x59, 0x38, 0xbd,
  0x5c, 0xed, 0x83, 0x3e, 0xa9, 0x9b, 0x8b, 0x3e, 0x94, 0x73, 0x45, 0x3e,
  0x54, 0xf8, 0x5c, 0x3e, 0xbc, 0x39, 0x10, 0xbe, 0x29, 0x37, 0x3c, 0xbe,
  0xa6, 0xf5, 0xef, 0x3d, 0x92, 0x77, 0x17, 0xbc, 0xf4, 0x37, 0xa8, 0xbe,
  0xc8, 0x61, 0xc7, 0xbe, 0xfd, 0x08, 0x6f, 0xbd, 0xa8, 0xed, 0xa7, 0xbd,
  0x8a, 0x68, 0x0f, 0xbe, 0x2a, 0xd3, 0x2e, 0xbe, 0xdd, 0x9b, 0xb4, 0x3d,
  0x49, 0xed, 0xb9, 0xbe, 0x51, 0xcb, 0x6d, 0x3e, 0xa8, 0x00, 0x2d, 0xbd,
  0xcb, 0x92, 0x5c, 0x3e, 0x94, 0x84, 0x95, 0xbd, 0x52, 0xd7, 0x7d, 0x3e,
  0x5e, 0xd6, 0x6e, 0x3e, 0x93, 0x95, 0xf3, 0x3d, 0xf1, 0x0d, 0xf6, 0xbd,
  0xcd, 0xa7, 0x16, 0x3e, 0x43, 0xf0, 0x03, 0x3d, 0xf3, 0x08, 0x27, 0x3e,
  0x33, 0x99, 0x63, 0x3e, 0x99, 0xd7, 0x92, 0xbe, 0xaa, 0x40, 0x4c, 0x3c,
  0xf6, 0x1c, 0x94, 0x3d, 0xd6, 0x9a, 0x50, 0x3e, 0x6a, 0x15, 0xf7, 0xbd,
  0xb4, 0x9a, 0xfe, 0xbd, 0x86, 0x1c, 0xd0, 0xbe, 0xb0, 0x33, 0xa9, 0x3b,
  0x2e, 0xa8, 0x8c, 0x3e, 0x92, 0x96, 0x52, 0x3e, 0x31, 0xeb, 0x19, 0xbe,
  0x72, 0xa2, 0xb8, 0xbe, 0xe0, 0x79, 0x4d, 0x3e, 0x1c, 0x52, 0xb2, 0xbd,
  0xf3, 0x07, 0xaa, 0xba, 0xf5, 0x5c, 0x25, 0x3e, 0xfa, 0x84, 0x4e, 0xbe,
  0x37, 0xd8, 0x71, 0x3e, 0x8c, 0x40, 0xa8, 0xbe, 0x77, 0xed, 0x82, 0xbe,
  0x91, 0x39, 0xa2, 0xbe, 0x1f, 0x81, 0xa7, 0x3e, 0x04, 0x23, 0x6b, 0x3e,
  0xde, 0x4f, 0x6e, 0xbe, 0xc9, 0xce, 0xca, 0x3d, 0x1f, 0x24, 0xfd, 0xbd,
  0x42, 0xd2, 0x6f, 0xbe, 0xec, 0x98, 0xe7, 0x3e, 0xfa, 0x31, 0x2e, 0x3e,
  0x95, 0x22, 0xae, 0xbe, 0xf0, 0x2a, 0x94, 0xbd, 0xf1, 0x03, 0x21, 0x3e,
  0x69, 0xaf, 0x71, 0x3e, 0x2a, 0x55, 0x88, 0x3b, 0x7a, 0x10, 0x1d, 0x3e,
  0xdf, 0xe7, 0x05, 0x3e, 0xac, 0xa5, 0x7c, 0xbe, 0xcf, 0x79, 0x0d, 0xbe,
  0xdb, 0x28, 0xb4, 0x3e, 0xc8, 0xd3, 0x5c, 0xbe, 0x3e, 0x2a, 0x1c, 0x3e,
  0x07, 0x51, 0xde, 0x3c, 0x83, 0x79, 0x22, 0x3d, 0x7a, 0x26, 0x23, 0xbe,
  0xff, 0xe9, 0x5a, 0x3e, 0x32, 0x7e, 0x48, 0x3e, 0x68, 0xfe, 0xda, 0xbe,
  0x8f, 0x89, 0xa2, 0xbe, 0xb6, 0x50, 0x10, 0x3e, 0xc9, 0xb2, 0xbc, 0x3e,
  0x16, 0x91, 0x7e, 0x3e, 0xd5, 0x93, 0x83, 0xbd, 0x08, 0x61, 0x94, 0x3e,
  0xdf, 0x21, 0x90, 0xbe, 0xf4, 0xb8, 0x78, 0xbe, 0xae, 0xa2, 0x54, 0xbe,
  0x37, 0x36, 0x8a, 0x3e, 0x8d, 0x26, 0x89, 0x3d, 0x86, 0xb5, 0xde, 0xbe,
  0xe9, 0x7f, 0x64, 0xbe, 0x50, 0x17, 0x69, 0xbe, 0x73, 0x85, 0x26, 0x3e,
  0x7c, 0x48, 0x73, 0x3e, 0xb2, 0x5e, 0xe5, 0x3e, 0x5e, 0x86, 0xce, 0xbd,
  0x6a, 0xca, 0xb3, 0x3e, 0x6e, 0x4d, 0xac, 0xbb, 0x46, 0xa4, 0xa1, 0xbe,
  0x66, 0x6e, 0x52, 0x3e, 0x03, 0x16, 0x45, 0xbd, 0xf2, 0x07, 0xd6, 0x3d,
  0x9d, 0xc7, 0xce, 0xbe, 0x2d, 0xa6, 0xfc, 0x3d, 0x38, 0x99, 0x13, 0xbd,
  0x71, 0x6f, 0xd2, 0x3d, 0xd9, 0x9c, 0x81, 0xbe, 0x03, 0x36, 0x7a, 0xbc,
  0x0e, 0x0c, 0xbc, 0xbe, 0x9e, 0x91, 0xa6, 0x3e, 0x79, 0x51, 0xc6, 0x3e,
  0x18, 0xb9, 0x87, 0x3e, 0x30, 0x87, 0x86, 0xbc, 0xdc, 0xbc, 0x66, 0x3e,
  0x3a, 0xdd, 0xfe, 0xbd, 0x65, 0xaf, 0x9f, 0xbd, 0x44, 0x14, 0x9b, 0xbe,
  0x14, 0xee, 0x17, 0xbe, 0xb3, 0xea, 0x11, 0xbe, 0x50, 0x18, 0xad, 0xbe,
  0xe2, 0x5a, 0x4e, 0x3e, 0x52, 0x23, 0x40, 0x3d, 0x37, 0x7e, 0x1e, 0x3c,
  0x32, 0x55, 0x71, 0x3e, 0xe2, 0x5c, 0x3a, 0x3e, 0xa7, 0xd0, 0x92, 0x3d,
  0x40, 0xac, 0x8c, 0x3e, 0x86, 0xf3, 0xa6, 0xbd, 0xfb, 0x76, 0xef, 0x3d,
  0xc5, 0x03, 0x8c, 0xbe, 0x42, 0x1d, 0x4b, 0x3d, 0x28, 0x22, 0x55, 0x3e,
  0x5e, 0x4e, 0x98, 0x3e, 0x23, 0xd2, 0x16, 0xbf, 0x4e, 0x7f, 0x24, 0x3e,
  0x82, 0xa2, 0x44, 0xbc, 0x8b, 0x2a, 0x5c, 0x3e, 0x51, 0x58, 0x37, 0x3e,
  0xf7, 0x21, 0x76, 0xbe, 0x9d, 0xf1, 0x8f, 0x3d, 0xcc, 0xa5, 0x10, 0x3d,
  0x10, 0xb1, 0x24, 0xbd, 0x22, 0xb3, 0x0c, 0x3e, 0xcd, 0x1e, 0x03, 0xbe,
  0x78, 0x17, 0x6a, 0x3d, 0x36, 0x7f, 0xa0, 0xbe, 0xf6, 0x48, 0x41, 0x3e,
  0x14, 0xe0, 0xc8, 0xbd, 0xad, 0x90, 0xa1, 0xbe, 0x03, 0x00, 0xb5, 0xbe,
  0xd9, 0x8a, 0x33, 0xbe, 0x31, 0xb1, 0x89, 0x3e, 0x88, 0x45, 0x65, 0xbe,
  0x7c, 0x64, 0x6e, 0xbe, 0xba, 0x41, 0x16, 0x3e, 0x81, 0x2b, 0x47, 0xbe,
  0x0a, 0xd3, 0x3b, 0xbe, 0xd8, 0xd2, 0x0d, 0x3d, 0x66, 0x70, 0x4f, 0x3e,
  0x20, 0xda, 0x00, 0xbc, 0x18, 0xea, 0x20, 0x3d, 0x06, 0xb9, 0x5e, 0x3e,
  0xe8, 0x8d, 0x93, 0xbd, 0xb0, 0xcf, 0xe9, 0xbc, 0xb7, 0xd7, 0x95, 0xbe,
  0x93, 0xc8, 0x18, 0xbe, 0xea, 0x2d, 0x2d, 0xbe, 0x04, 0x49, 0xb3, 0x3d,
  0xa4, 0x62, 0xb2, 0xbd, 0x49, 0x36, 0x93, 0x3e, 0x80, 0x12, 0x18, 0x3b,
  0x90, 0xd2, 0x91, 0x3e, 0x21, 0xb1, 0xb9, 0x3e, 0xd9, 0x56, 0x2b, 0x3e,
  0x96, 0x74, 0x0b, 0x3e, 0x06, 0xbc, 0xb6, 0x3e, 0xd1, 0x8f, 0xe2, 0xbe,
  0xfd, 0x62, 0x0d, 0xbe, 0xa1, 0xed, 0xbd, 0x3e, 0xc1, 0xe5, 0x8b, 0x3e,
  0x7d, 0x3e, 0x97, 0x3e, 0x4e, 0xe3, 0x0a, 0xbe, 0x01, 0xd2, 0x95, 0x3e,
  0xdc, 0x6b, 0xc6, 0x3e, 0x39, 0x43, 0x8a, 0xbe, 0x9b, 0xbe, 0xbf, 0x3e,
  0x78, 0x95, 0xc4, 0x3d, 0x7d, 0x23, 0x08, 0xbe, 0x96, 0x9b, 0xa8, 0x3d,
  0x53, 0xa9, 0x37, 0xbe, 0xc7, 0x7b, 0x1d, 0x3e, 0xae, 0x70, 0xdd, 0x3e,
  0xe0, 0x26, 0x1d, 0x3d, 0xa9, 0x73, 0xa1, 0x3e, 0x2e, 0xaa, 0x09, 0x3e,
  0x30, 0x7d, 0x51, 0x3d, 0x26, 0xba, 0x8b, 0xbc, 0xf5, 0x8c, 0x2b, 0xbe,
  0xe7, 0x6a, 0x81, 0x3e, 0x48, 0xa2, 0xbf, 0xbe, 0x7d, 0xc8, 0xba, 0x3d,
  0x7d, 0xaf, 0x1d, 0x3e, 0x9f, 0x71, 0x91, 0x3e, 0x81, 0x1d, 0x0d, 0xbe,
  0x7f, 0x94, 0x8e, 0x3e, 0xee, 0x5e, 0x36, 0xbd, 0xf7, 0x33, 0x5c, 0x3e,
  0xb5, 0x65, 0x82, 0xbe, 0x8a, 0xee, 0x35, 0x3e, 0xcb, 0xe1, 0x60, 0xbe,
  0xb3, 0xc6, 0x3d, 0xbd, 0xdc, 0xef, 0x57, 0xbe, 0xf7, 0x30, 0xa8, 0xbe,
  0x3d, 0x35, 0x97, 0xbe, 0x3c, 0x71, 0xad, 0xbd, 0x44, 0x49, 0x9d, 0x3e,
  0x9a, 0x98, 0xc0, 0xbe, 0x99, 0xb7, 0x51, 0x3e, 0x3c, 0x7a, 0xdb, 0x3d,
  0xf8, 0xbb, 0x83, 0x3e, 0x05, 0xbc, 0xa1, 0x3d, 0x7b, 0x1c, 0x04, 0xbe,
  0xf6, 0x3d, 0x86, 0x3e, 0x48, 0x70, 0x48, 0xbe, 0x9e, 0xdd, 0x38, 0x3e,
  0x05, 0xb9, 0xb4, 0xbe, 0x4f, 0x9e, 0xbf, 0x3d, 0xbb, 0x56, 0xcc, 0x3c,
  0x50, 0xeb, 0x6d, 0x3e, 0x3c, 0x7b, 0x8b, 0xbe, 0x21, 0xf7, 0x6a, 0xbe,
  0x2e, 0xe5, 0xfb, 0xbd, 0xb4, 0xee, 0x96, 0xbd, 0x40, 0xf1, 0xd4, 0x3d,
  0xee, 0xc8, 0x34, 0x3e, 0x40, 0xa2, 0xbc, 0xbc, 0xa8, 0x06, 0xb7, 0x3d,
  0xb6, 0x0c, 0x13, 0x3e, 0xc0, 0x11, 0x4a, 0x3c, 0x88, 0x54, 0x51, 0x3d,
  0x44, 0x8f, 0x2f, 0xbe, 0xbb, 0x8b, 0xa2, 0xbe, 0x82, 0xae, 0x62, 0xbe,
  0xf0, 0x84, 0xa2, 0x3c, 0x1f, 0x44, 0x86, 0x3e, 0x36, 0x78, 0x48, 0x3e,
  0x5a, 0x4c, 0x27, 0xbe, 0xc2, 0x01, 0x8b, 0xbe, 0x30, 0x0c, 0xbf, 0x3d,
  0x60, 0x08, 0x6f, 0x3c, 0xb4, 0x33, 0x94, 0xbe, 0x65, 0x90, 0xa4, 0xbe,
  0xd0, 0x6d, 0x07, 0xbd, 0x48, 0x95, 0x9b, 0xbe, 0x78, 0x1e, 0x94, 0x3d,
  0x36, 0x97, 0xfd, 0xbd, 0xc8, 0xdb, 0x90, 0xbe, 0x1c, 0xcc, 0x96, 0xbe,
  0xe8, 0x07, 0x75, 0xbe, 0x6f, 0xbb, 0x8e, 0xbe, 0x2f, 0x5a, 0x51, 0xbe,
  0x49, 0x10, 0x99, 0x3e, 0xac, 0x28, 0xb1, 0x3e, 0xf9, 0x96, 0x38, 0x3e,
  0xe8, 0x59, 0x62, 0x3d, 0xc2, 0xcd, 0x30, 0x3e, 0x69, 0xb1, 0x40, 0xbe,
  0x32, 0xc4, 0x50, 0x3e, 0xca, 0xa8, 0xf1, 0xbe, 0x0a, 0xcd, 0x83, 0xbe,
  0xef, 0x9f, 0x01, 0x3f, 0x61, 0x67, 0x51, 0x3d, 0x98, 0xde, 0x8a, 0x3d,
  0x38, 0xf5, 0x66, 0xbd, 0x6c, 0x95, 0xb2, 0xbd, 0x0a, 0xcf, 0x55, 0x3e,
  0x8b, 0x59, 0x84, 0x3e, 0x25, 0x79, 0xdd, 0x3d, 0x27, 0x82, 0x85, 0xbe,
  0xf8, 0x41, 0x22, 0x3e, 0xcb, 0x72, 0x19, 0xbe, 0x09, 0x60, 0xa1, 0x3e,
  0xb4, 0x7e, 0xd0, 0xbc, 0xcf, 0x10, 0x85, 0x3d, 0xfc, 0x1b, 0xd2, 0x3d,
  0xb6, 0x59, 0x9b, 0xbe, 0xa0, 0x6e, 0xbf, 0xbe, 0x00, 0x4f, 0x44, 0x3e,
  0x14, 0xbd, 0x10, 0xbe, 0x9e, 0xaf, 0x5f, 0x3d, 0xd6, 0xb5, 0x14, 0xbf,
  0x5a, 0x74, 0x7a, 0x3e, 0x2b, 0x6d, 0x15, 0xbd, 0x1a, 0x87, 0x43, 0xbd,
  0x5f, 0x6f, 0x9f, 0x3e, 0x13, 0xdd, 0x1c, 0xbe, 0x4b, 0x3f, 0xa6, 0x3e,
  0x44, 0xf6, 0x5b, 0xbe, 0xc9, 0xc9, 0x93, 0xbc, 0xa9, 0xd8, 0x98, 0xbd,
  0x84, 0xa5, 0x0a, 0x3e, 0xbb, 0x50, 0xd4, 0xbe, 0xc0, 0xbc, 0x15, 0xbe,
  0x12, 0x41, 0x98, 0x3e, 0xb5, 0xde, 0x7e, 0xbe, 0x8e, 0xf1, 0xd0, 0x3e,
  0xfe, 0x5d, 0x88, 0xbe, 0x9a, 0x42, 0x52, 0xbe, 0xc9, 0x0b, 0x98, 0x3e,
  0x85, 0x51, 0x29, 0xbe, 0xd9, 0xe0, 0x4e, 0x3d, 0xbe, 0xa6, 0xc2, 0xbd,
  0x01, 0x48, 0x0c, 0x3e, 0xdc, 0xed, 0xba, 0x3c, 0x07, 0x75, 0x63, 0xbe,
  0xd3, 0x3f, 0x34, 0x3e, 0x5b, 0xd2, 0x8f, 0xbe, 0xbe, 0x4b, 0x95, 0xbe,
  0x2a, 0x64, 0xe0, 0x3d, 0x3c, 0xbb, 0x85, 0xbe, 0xdc, 0xb4, 0x61, 0x3e,
  0xd9, 0xeb, 0x30, 0xbe, 0x4a, 0x21, 0xbc, 0xbe, 0xb5, 0x76, 0x02, 0xbe,
  0x72, 0x93, 0x95, 0xbe, 0xbb, 0xf9, 0xc8, 0x3c, 0xbc, 0xb1, 0x88, 0xbe,
  0x68, 0x1b, 0x81, 0x3e, 0x80, 0x3f, 0xd7, 0xbd, 0xb4, 0x89, 0x89, 0xbe,
  0xe1, 0x14, 0x9b, 0xbe, 0x68, 0x8b, 0x17, 0xbe, 0xfa, 0xc7, 0x06, 0xbe,
  0x5c, 0xe6, 0x6a, 0xbd, 0x48, 0x7e, 0x54, 0xbe, 0x94, 0x66, 0x64, 0xbd,
  0xb0, 0x37, 0xe9, 0x3d, 0x8f, 0x68, 0x9d, 0xbb, 0x95, 0x50, 0x32, 0x3e,
  0x6e, 0x2c, 0x48, 0xbe, 0x20, 0xa6, 0x70, 0x3e, 0x0e, 0x35, 0x99, 0x3b,
  0x04, 0x9b, 0x26, 0x3e, 0x86, 0xe0, 0xb1, 0xbe, 0x9c, 0x61, 0x6e, 0xbe,
  0x29, 0x36, 0xc8, 0xbd, 0x15, 0x66, 0x4c, 0x3e, 0xe1, 0xaa, 0xc2, 0x3d,
  0x2b, 0x3c, 0xbd, 0xbe, 0x64, 0x4c, 0x36, 0xbd, 0x1c, 0x46, 0xb3, 0x3e,
  0xda, 0x5b, 0x78, 0x3e, 0x34, 0x0d, 0x86, 0x3e, 0xfd, 0xe4, 0x60, 0xbe,
  0x0e, 0xb4, 0x2b, 0x3e, 0x2a, 0xc3, 0x8a, 0x3e, 0xec, 0x64, 0xb2, 0x3e,
  0x54, 0x05, 0xac, 0x3e, 0xd2, 0xa6, 0x8e, 0x3e, 0x1a, 0x16, 0x18, 0x3b,
  0x1c, 0xf4, 0xea, 0xbc, 0x8c, 0x50, 0x61, 0x3e, 0x65, 0x8a, 0x70, 0x3e,
  0xe1, 0x7e, 0x9c, 0x3e, 0x17, 0x4f, 0x9f, 0xbd, 0xcd, 0x72, 0x96, 0x3e,
  0x37, 0x58, 0xd2, 0x3e, 0x9e, 0x31, 0xfc, 0xbd, 0xa9, 0xc5, 0x82, 0xbe,
  0x29, 0xa6, 0x30, 0xbd, 0x96, 0xbe, 0xaa, 0x3d, 0x20, 0xdc, 0x78, 0xbe,
  0xa5, 0x96, 0x84, 0x3d, 0xdf, 0x26, 0xe8, 0xbd, 0x28, 0x16, 0x15, 0x3e,
  0xf3, 0xf7, 0x82, 0x3e, 0x09, 0xd9, 0x82, 0x3e, 0x12, 0x47, 0xc4, 0xbe,
  0x34, 0x78, 0x80, 0x3e, 0xfd, 0x27, 0x14, 0x3e, 0x7d, 0x95, 0x7a, 0xbd,
  0x6a, 0xff, 0xff, 0xff, 0x10, 0x00, 0x00, 0x00, 0x02, 0x00, 0x00, 0x00,
  0x14, 0x00, 0x00, 0x00, 0x4c, 0x00, 0x00, 0x00, 0x02, 0x00, 0x00, 0x00,
  0x01, 0x00, 0x00, 0x00, 0x0c, 0x00, 0x00, 0x00, 0x37, 0x00, 0x00, 0x00,
  0x73, 0x65, 0x71, 0x75, 0x65, 0x6e, 0x74, 0x69, 0x61, 0x6c, 0x5f, 0x32,
  0x39, 0x2f, 0x64, 0x65, 0x6e, 0x73, 0x65, 0x5f, 0x31, 0x31, 0x36, 0x2f,
  0x4d, 0x61, 0x74, 0x4d, 0x75, 0x6c, 0x2f, 0x52, 0x65, 0x61, 0x64, 0x56,
  0x61, 0x72, 0x69, 0x61, 0x62, 0x6c, 0x65, 0x4f, 0x70, 0x2f, 0x74, 0x72,
  0x61, 0x6e, 0x73, 0x70, 0x6f, 0x73, 0x65, 0x00, 0x20, 0xff, 0xff, 0xff,
  0x30, 0x00, 0x00, 0x00, 0x5f, 0x24, 0xd2, 0x3c, 0xab, 0x67, 0xd5, 0xbe,
  0xf0, 0x32, 0x11, 0xbf, 0x52, 0xef, 0x62, 0xbc, 0x82, 0x36, 0xee, 0xbd,
  0x1d, 0x22, 0x10, 0xbe, 0xf4, 0x0a, 0xcc, 0xbe, 0x5c, 0x4f, 0xea, 0xbe,
  0xe8, 0xf1, 0x1c, 0x3c, 0x22, 0x43, 0x48, 0xbc, 0xdc, 0x39, 0xad, 0x3e,
  0x40, 0x9b, 0x04, 0x3e, 0x00, 0x00, 0x0e, 0x00, 0x14, 0x00, 0x04, 0x00,
  0x00, 0x00, 0x08, 0x00, 0x0c, 0x00, 0x10, 0x00, 0x0e, 0x00, 0x00, 0x00,
  0x10, 0x00, 0x00, 0x00, 0x01, 0x00, 0x00, 0x00, 0x10, 0x00, 0x00, 0x00,
  0x34, 0x00, 0x00, 0x00, 0x01, 0x00, 0x00, 0x00, 0x01, 0x00, 0x00, 0x00,
  0x23, 0x00, 0x00, 0x00, 0x73, 0x65, 0x71, 0x75, 0x65, 0x6e, 0x74, 0x69,
  0x61, 0x6c, 0x5f, 0x32, 0x39, 0x2f, 0x64, 0x65, 0x6e, 0x73, 0x65, 0x5f,
  0x31, 0x31, 0x36, 0x2f, 0x4d, 0x61, 0x74, 0x4d, 0x75, 0x6c, 0x5f, 0x62,
  0x69, 0x61, 0x73, 0x00, 0xac, 0xff, 0xff, 0xff, 0x04, 0x00, 0x00, 0x00,
  0x09, 0xf9, 0x34, 0x3f, 0x04, 0x00, 0x00, 0x00, 0xd8, 0x00, 0x00, 0x00,
  0x84, 0x00, 0x00, 0x00, 0x44, 0x00, 0x00, 0x00, 0x04, 0x00, 0x00, 0x00,
  0x4c, 0xff, 0xff, 0xff, 0x00, 0x00, 0x00, 0x08, 0x10, 0x00, 0x00, 0x00,
  0x1c, 0x00, 0x00, 0x00, 0x28, 0x00, 0x00, 0x00, 0x1c, 0x00, 0x00, 0x00,
  0x03, 0x00, 0x00, 0x00, 0x0a, 0x00, 0x00, 0x00, 0x0b, 0x00, 0x00, 0x00,
  0x0c, 0x00, 0x00, 0x00, 0x01, 0x00, 0x00, 0x00, 0x00, 0x00, 0x00, 0x00,
  0x00, 0x00, 0x00, 0x00, 0x04, 0x00, 0x04, 0x00, 0x04, 0x00, 0x00, 0x00,
  0x88, 0xff, 0xff, 0xff, 0x00, 0x00, 0x00, 0x08, 0x10, 0x00, 0x00, 0x00,
  0x1c, 0x00, 0x00, 0x00, 0x24, 0x00, 0x00, 0x00, 0x1c, 0x00, 0x00, 0x00,
  0x03, 0x00, 0x00, 0x00, 0x07, 0x00, 0x00, 0x00, 0x08, 0x00, 0x00, 0x00,
  0x09, 0x00, 0x00, 0x00, 0x01, 0x00, 0x00, 0x00, 0x0a, 0x00, 0x00, 0x00,
  0x00, 0x00, 0x00, 0x00, 0x4a, 0xff, 0xff, 0xff, 0x00, 0x00, 0x00, 0x01,
  0xc4, 0xff, 0xff, 0xff, 0x00, 0x00, 0x00, 0x08, 0x10, 0x00, 0x00, 0x00,
  0x1c, 0x00, 0x00, 0x00, 0x24, 0x00, 0x00, 0x00, 0x1c, 0x00, 0x00, 0x00,
  0x03, 0x00, 0x00, 0x00, 0x04, 0x00, 0x00, 0x00, 0x05, 0x00, 0x00, 0x00,
  0x06, 0x00, 0x00, 0x00, 0x01, 0x00, 0x00, 0x00, 0x07, 0x00, 0x00, 0x00,
  0x00, 0x00, 0x00, 0x00, 0x86, 0xff, 0xff, 0xff, 0x00, 0x00, 0x00, 0x01,
  0x14, 0x00, 0x18, 0x00, 0x00, 0x00, 0x08, 0x00, 0x0c, 0x00, 0x07, 0x00,
  0x10, 0x00, 0x00, 0x00, 0x00, 0x00, 0x14, 0x00, 0x14, 0x00, 0x00, 0x00,
  0x00, 0x00, 0x00, 0x08, 0x10, 0x00, 0x00, 0x00, 0x1c, 0x00, 0x00, 0x00,
  0x24, 0x00, 0x00, 0x00, 0x1c, 0x00, 0x00, 0x00, 0x03, 0x00, 0x00, 0x00,
  0x01, 0x00, 0x00, 0x00, 0x02, 0x00, 0x00, 0x00, 0x03, 0x00, 0x00, 0x00,
  0x01, 0x00, 0x00, 0x00, 0x04, 0x00, 0x00, 0x00, 0x00, 0x00, 0x00, 0x00,
  0xd6, 0xff, 0xff, 0xff, 0x00, 0x00, 0x00, 0x01, 0x01, 0x00, 0x00, 0x00,
  0x04, 0x00, 0x00, 0x00, 0xe6, 0xff, 0xff, 0xff, 0x00, 0x00, 0x00, 0x09,
  0xfa, 0xff, 0xff, 0xff, 0x00, 0x09, 0x06, 0x00, 0x06, 0x00, 0x05, 0x00,
  0x06, 0x00, 0x00, 0x00, 0x00, 0x09, 0x06, 0x00, 0x08, 0x00, 0x07, 0x00,
  0x06, 0x00, 0x00, 0x00, 0x00, 0x00, 0x00, 0x09
};
